<unk>	0
<s>	0
</s>	0
▁t	-0
▁th	-1
▁a	-2
▁s	-3
▁b	-4
▁w	-5
ou	-6
in	-7
re	-8
▁the	-9
▁h	-10
▁be	-11
on	-12
▁m	-13
it	-14
at	-15
▁I	-16
▁n	-17
er	-18
▁c	-19
▁f	-20
▁d	-21
me	-22
▁l	-23
▁y	-24
▁p	-25
an	-26
or	-27
▁g	-28
ve	-29
▁to	-30
ll	-31
is	-32
▁you	-33
▁o	-34
▁an	-35
st	-36
▁it	-37
en	-38
ame	-39
▁that	-40
ar	-41
le	-42
▁re	-43
▁in	-44
ot	-45
▁and	-46
ke	-47
▁e	-48
▁ha	-49
▁name	-50
ow	-51
se	-52
▁of	-53
▁wh	-54
▁he	-55
ay	-56
▁on	-57
ic	-58
▁so	-59
ing	-60
ly	-61
oo	-62
et	-63
▁this	-64
▁for	-65
al	-66
▁have	-67
ut	-68
▁u	-69
▁sh	-70
ee	-71
ld	-72
▁do	-73
▁>	-74
▁<	-75
NU	-76
NUM	-77
▁NUM	-78
▁st	-79
ver	-80
▁we	-81
ro	-82
▁not	-83
ad	-84
▁li	-85
▁j	-86
all	-87
id	-88
ac	-89
gh	-90
▁they	-91
ion	-92
out	-93
ust	-94
ss	-95
▁r	-96
▁i	-97
▁my	-98
▁lo	-99
▁k	-100
ith	-101
op	-102
ould	-103
ch	-104
▁but	-105
▁get	-106
ake	-107
ir	-108
ally	-109
▁like	-110
▁with	-111
▁just	-112
▁co	-113
▁su	-114
ill	-115
ate	-116
nt	-117
ea	-118
th	-119
ce	-120
▁than	-121
▁go	-122
▁mo	-123
▁your	-124
▁can	-125
▁de	-126
ct	-127
▁some	-128
igh	-129
▁as	-130
▁what	-131
▁ab	-132
▁ch	-133
one	-134
ink	-135
ri	-136
▁at	-137
ry	-138
ood	-139
pp	-140
▁al	-141
▁if	-142
ck	-143
▁she	-144
▁see	-145
▁po	-146
ight	-147
ge	-148
▁no	-149
ant	-150
▁all	-151
▁ne	-152
▁think	-153
▁don	-154
▁thank	-155
un	-156
▁good	-157
ra	-158
ent	-159
▁ex	-160
▁make	-161
mp	-162
▁would	-163
very	-164
▁one	-165
▁love	-166
as	-167
▁pe	-168
▁about	-169
▁con	-170
au	-171
end	-172
▁out	-173
▁up	-174
ive	-175
▁kn	-176
nd	-177
▁ye	-178
▁or	-179
ble	-180
ook	-181
ter	-182
ue	-183
▁me	-184
▁wor	-185
ur	-186
▁pl	-187
ie	-188
ime	-189
ople	-190
▁people	-191
ind	-192
▁know	-193
ul	-194
▁pro	-195
▁any	-196
il	-197
ist	-198
▁there	-199
▁how	-200
▁v	-201
fe	-202
▁well	-203
and	-204
am	-205
▁say	-206
rom	-207
▁man	-208
ain	-209
ation	-210
ack	-211
▁look	-212
ig	-213
▁from	-214
ough	-215
ment	-216
▁who	-217
are	-218
▁when	-219
ite	-220
ice	-221
ine	-222
▁time	-223
ast	-224
ous	-225
▁too	-226
uck	-227
so	-228
pe	-229
▁more	-230
▁really	-231
▁ve	-232
ause	-233
art	-234
▁his	-235
▁will	-236
our	-237
▁pre	-238
▁now	-239
▁bec	-240
ard	-241
▁se	-242
ong	-243
thing	-244
▁ag	-245
▁fee	-246
▁mu	-247
▁every	-248
▁bad	-249
ide	-250
▁want	-251
▁thing	-252
ere	-253
▁le	-254
ort	-255
▁int	-256
if	-257
ma	-258
▁te	-259
▁lol	-260
▁feel	-261
▁un	-262
▁happ	-263
ose	-264
her	-265
▁because	-266
act	-267
uy	-268
ven	-269
um	-270
eed	-271
ab	-272
▁tr	-273
ound	-274
om	-275
ud	-276
ore	-277
ity	-278
▁com	-279
▁year	-280
way	-281
▁play	-282
▁ar	-283
▁act	-284
▁take	-285
reat	-286
▁per	-287
lf	-288
▁why	-289
▁even	-290
▁sp	-291
▁oh	-292
▁much	-293
ree	-294
▁still	-295
▁only	-296
▁by	-297
▁their	-298
ty	-299
ope	-300
▁right	-301
▁here	-302
▁cl	-303
▁en	-304
▁yea	-305
ure	-306
▁need	-307
▁sc	-308
ick	-309
ha	-310
▁should	-311
ed	-312
▁way	-313
ish	-314
us	-315
▁guy	-316
▁lea	-317
▁off	-318
▁then	-319
▁q	-320
ace	-321
son	-322
▁try	-323
ther	-324
▁back	-325
▁ll	-326
▁hope	-327
ually	-328
▁could	-329
▁come	-330
▁yeah	-331
▁af	-332
own	-333
▁mean	-334
be	-335
dd	-336
idn	-337
im	-338
▁her	-339
▁other	-340
▁work	-341
▁use	-342
▁fuck	-343
▁game	-344
▁didn	-345
atch	-346
▁dis	-347
ep	-348
we	-349
▁post	-350
▁never	-351
▁day	-352
▁ho	-353
▁very	-354
ase	-355
▁great	-356
ire	-357
▁over	-358
ious	-359
ond	-360
int	-361
oy	-362
iss	-363
▁also	-364
ip	-365
ber	-366
es	-367
age	-368
▁bl	-369
▁though	-370
ap	-371
▁fun	-372
iz	-373
▁new	-374
ol	-375
▁pret	-376
▁op	-377
ci	-378
▁may	-379
ag	-380
▁give	-381
▁someone	-382
▁real	-383
▁same	-384
▁sure	-385
▁jo	-386
ile	-387
ff	-388
ote	-389
sh	-390
▁lit	-391
▁comp	-392
▁down	-393
▁actually	-394
able	-395
▁sub	-396
▁br	-397
▁those	-398
od	-399
ool	-400
riend	-401
▁sor	-402
▁fa	-403
ute	-404
▁sorry	-405
▁pretty	-406
ass	-407
esn	-408
▁doesn	-409
▁find	-410
▁something	-411
alk	-412
per	-413
▁ke	-414
ways	-415
other	-416
▁fir	-417
up	-418
ull	-419
self	-420
▁tell	-421
ude	-422
▁und	-423
mo	-424
▁def	-425
▁pr	-426
▁wr	-427
▁again	-428
▁first	-429
ence	-430
▁most	-431
▁after	-432
▁id	-433
▁ad	-434
read	-435
▁let	-436
▁read	-437
lp	-438
▁happen	-439
▁fe	-440
▁always	-441
ance	-442
▁ac	-443
▁app	-444
▁under	-445
ak	-446
▁gl	-447
▁win	-448
▁person	-449
ise	-450
▁cont	-451
tle	-452
▁these	-453
▁yes	-454
▁kid	-455
▁friend	-456
▁ok	-457
▁rel	-458
ful	-459
▁gr	-460
▁is	-461
ren	-462
▁comment	-463
▁life	-464
▁dam	-465
▁into	-466
ably	-467
▁its	-468
▁part	-469
ory	-470
▁qu	-471
▁help	-472
▁our	-473
▁keep	-474
▁happy	-475
▁point	-476
▁old	-477
▁watch	-478
ach	-479
sp	-480
▁call	-481
ne	-482
▁hear	-483
▁tw	-484
▁hate	-485
▁bel	-486
▁where	-487
▁prob	-488
ount	-489
fore	-490
▁show	-491
▁che	-492
▁bot	-493
ange	-494
▁hard	-495
▁lot	-496
▁seem	-497
▁wa	-498
▁maybe	-499
▁probably	-500
▁before	-501
co	-502
▁kind	-503
ild	-504
▁fl	-505
▁ser	-506
▁damn	-507
ich	-508
▁last	-509
▁ro	-510
▁ever	-511
less	-512
▁isn	-513
▁ph	-514
▁talk	-515
▁sound	-516
▁long	-517
te	-518
ize	-519
▁thr	-520
▁stop	-521
▁big	-522
▁shit	-523
▁cr	-524
hh	-525
pect	-526
▁nice	-527
▁rep	-528
▁haha	-529
get	-530
▁wow	-531
▁everyone	-532
▁start	-533
mm	-534
xt	-535
day	-536
▁end	-537
▁sur	-538
▁dude	-539
ieve	-540
ress	-541
▁many	-542
▁wait	-543
ang	-544
ub	-545
urn	-546
erest	-547
▁leave	-548
ird	-549
▁anything	-550
▁ter	-551
▁wrong	-552
▁ass	-553
▁imp	-554
wn	-555
ason	-556
▁care	-557
▁little	-558
hing	-559
ult	-560
ict	-561
ddit	-562
▁wish	-563
reak	-564
▁exp	-565
ug	-566
▁tea	-567
pt	-568
ser	-569
▁el	-570
▁interest	-571
▁dif	-572
▁gir	-573
oman	-574
ny	-575
orm	-576
▁live	-577
▁woman	-578
ical	-579
▁ple	-580
▁glad	-581
ary	-582
▁believe	-583
ily	-584
ism	-585
▁sad	-586
ody	-587
▁put	-588
▁high	-589
oot	-590
▁sa	-591
ign	-592
▁sl	-593
▁sm	-594
▁att	-595
der	-596
▁aw	-597
ince	-598
▁sec	-599
▁reason	-600
▁str	-601
▁lose	-602
blem	-603
▁kill	-604
stand	-605
▁team	-606
▁nothing	-607
▁least	-608
mber	-609
ense	-610
some	-611
▁defin	-612
use	-613
▁ama	-614
▁ask	-615
▁luck	-616
og	-617
▁cool	-618
▁problem	-619
ual	-620
▁supp	-621
ically	-622
▁tra	-623
iv	-624
▁amaz	-625
▁enough	-626
▁comm	-627
▁might	-628
▁around	-629
rent	-630
▁which	-631
▁while	-632
▁understand	-633
▁both	-634
▁girl	-635
▁miss	-636
▁ob	-637
pr	-638
▁sea	-639
▁anyone	-640
ready	-641
▁please	-642
▁already	-643
▁agree	-644
▁diffe	-645
onder	-646
▁far	-647
▁dr	-648
▁gue	-649
ath	-650
▁acc	-651
▁wee	-652
▁leg	-653
▁bit	-654
▁wonder	-655
▁hand	-656
ade	-657
▁pay	-658
▁was	-659
▁guess	-660
▁weird	-661
▁since	-662
▁gen	-663
▁cra	-664
augh	-665
ible	-666
oney	-667
▁own	-668
▁another	-669
▁fav	-670
▁vide	-671
▁am	-672
▁hell	-673
▁true	-674
▁mon	-675
▁word	-676
▁ins	-677
▁min	-678
▁place	-679
▁change	-680
ia	-681
oc	-682
▁fan	-683
itely	-684
▁ed	-685
▁fr	-686
▁else	-687
ater	-688
▁sex	-689
▁face	-690
▁mar	-691
▁video	-692
ft	-693
arly	-694
▁car	-695
▁dec	-696
▁pol	-697
▁inst	-698
▁exact	-699
▁cle	-700
▁unt	-701
▁two	-702
▁next	-703
▁definitely	-704
▁week	-705
▁fact	-706
fect	-707
▁fin	-708
▁amazing	-709
▁rem	-710
▁funny	-711
ord	-712
▁awe	-713
▁surpr	-714
▁inc	-715
rible	-716
▁head	-717
▁joke	-718
ian	-719
upid	-720
onest	-721
uff	-722
▁ima	-723
▁la	-724
▁que	-725
▁season	-726
▁stupid	-727
ock	-728
▁such	-729
▁money	-730
aa	-731
joy	-732
▁em	-733
▁job	-734
▁idea	-735
qu	-736
▁home	-737
▁child	-738
▁honest	-739
cept	-740
▁enjoy	-741
▁bet	-742
▁run	-743
erally	-744
▁inter	-745
▁hor	-746
▁awesome	-747
lete	-748
▁cor	-749
member	-750
▁break	-751
▁rec	-752
▁cons	-753
▁until	-754
arent	-755
▁sch	-756
▁conf	-757
▁through	-758
▁remember	-759
▁ent	-760
ump	-761
▁world	-762
▁move	-763
iously	-764
▁few	-765
ction	-766
ither	-767
▁wasn	-768
▁free	-769
vote	-770
▁count	-771
▁second	-772
▁yourself	-773
sol	-774
vel	-775
▁must	-776
▁without	-777
▁us	-778
cial	-779
▁fam	-780
▁state	-781
▁eat	-782
▁whole	-783
ial	-784
▁ru	-785
▁sk	-786
▁dra	-787
▁boy	-788
▁away	-789
gine	-790
vie	-791
▁char	-792
▁reddit	-793
arn	-794
oooo	-795
▁res	-796
body	-797
▁laugh	-798
ix	-799
▁ah	-800
▁inf	-801
stion	-802
ens	-803
▁bo	-804
▁spe	-805
▁story	-806
▁ago	-807
ah	-808
oup	-809
▁reg	-810
▁literally	-811
▁interesting	-812
▁sn	-813
time	-814
aut	-815
ward	-816
ather	-817
lain	-818
▁exc	-819
▁less	-820
ster	-821
▁check	-822
ket	-823
▁die	-824
▁sit	-825
▁absol	-826
▁wouldn	-827
ully	-828
ience	-829
ail	-830
ider	-831
▁close	-832
▁favor	-833
▁exactly	-834
▁imagine	-835
▁absolute	-836
ib	-837
ition	-838
gn	-839
▁lma	-840
▁mind	-841
▁stay	-842
▁different	-843
gr	-844
ream	-845
▁art	-846
▁ind	-847
▁turn	-848
ead	-849
▁cu	-850
▁player	-851
▁eas	-852
▁yet	-853
▁against	-854
▁hum	-855
ately	-856
▁everything	-857
sc	-858
▁either	-859
red	-860
▁once	-861
▁beaut	-862
▁super	-863
em	-864
ash	-865
▁list	-866
▁lmao	-867
oom	-868
fort	-869
▁swe	-870
umb	-871
▁hit	-872
atter	-873
amp	-874
▁hu	-875
ative	-876
▁buy	-877
lic	-878
ship	-879
ention	-880
▁night	-881
lt	-882
zy	-883
▁suck	-884
▁favorite	-885
▁bro	-886
▁cause	-887
▁stuff	-888
▁question	-889
wh	-890
▁hur	-891
ger	-892
most	-893
▁school	-894
▁honestly	-895
os	-896
ye	-897
▁ty	-898
▁dep	-899
▁expect	-900
vice	-901
▁almost	-902
▁dri	-903
eal	-904
ness	-905
▁add	-906
▁cry	-907
ome	-908
▁sy	-909
▁news	-910
ank	-911
▁bab	-912
▁bas	-913
▁bra	-914
▁forget	-915
cess	-916
▁dog	-917
▁ext	-918
▁poor	-919
▁resp	-920
▁sign	-921
rop	-922
ouse	-923
ert	-924
orn	-925
line	-926
vers	-927
▁today	-928
▁surpris	-929
llow	-930
▁pick	-931
▁rest	-932
▁side	-933
▁aren	-934
▁beautif	-935
ark	-936
▁ra	-937
▁ref	-938
▁month	-939
▁fucking	-940
▁top	-941
▁stand	-942
eak	-943
▁okay	-944
dy	-945
come	-946
▁dou	-947
▁hey	-948
▁om	-949
ract	-950
▁med	-951
rence	-952
▁support	-953
lle	-954
▁beautiful	-955
▁relig	-956
▁myself	-957
▁remind	-958
issue	-959
▁bring	-960
ax	-961
▁absolutely	-962
▁baby	-963
▁hurt	-964
▁family	-965
▁ep	-966
▁ir	-967
▁mom	-968
▁complete	-969
ane	-970
▁z	-971
min	-972
▁open	-973
▁sw	-974
▁tri	-975
▁issue	-976
▁sense	-977
▁realize	-978
▁exper	-979
▁matter	-980
▁ap	-981
▁haven	-982
▁god	-983
▁tot	-984
▁hour	-985
▁worry	-986
ower	-987
▁deal	-988
ume	-989
▁sometime	-990
▁omg	-991
▁ret	-992
▁fight	-993
ng	-994
▁line	-995
▁terrible	-996
ner	-997
olog	-998
▁pass	-999
▁movie	-1000
▁x	-1001
gle	-1002
▁become	-1003
ilar	-1004
▁surprised	-1005
ife	-1006
▁dumb	-1007
▁heal	-1008
▁learn	-1009
▁cour	-1010
▁easy	-1011
▁vote	-1012
▁eye	-1013
ident	-1014
▁rac	-1015
fully	-1016
▁pain	-1017
ret	-1018
roll	-1019
ross	-1020
inion	-1021
▁shoot	-1022
▁parent	-1023
▁opinion	-1024
▁consider	-1025
▁cat	-1026
je	-1027
ush	-1028
side	-1029
el	-1030
ike	-1031
ciate	-1032
cially	-1033
▁sometimes	-1034
du	-1035
aste	-1036
unch	-1037
▁law	-1038
▁sing	-1039
▁religion	-1040
mit	-1041
▁arg	-1042
▁obv	-1043
▁disc	-1044
▁edit	-1045
cer	-1046
▁poss	-1047
▁curi	-1048
▁fall	-1049
▁crazy	-1050
▁exist	-1051
ho	-1052
▁fine	-1053
▁worth	-1054
▁pos	-1055
▁pri	-1056
serve	-1057
▁cur	-1058
▁half	-1059
▁self	-1060
▁human	-1061
app	-1062
wer	-1063
▁fo	-1064
▁gu	-1065
▁war	-1066
▁ball	-1067
▁pop	-1068
▁kinda	-1069
oice	-1070
▁date	-1071
▁norm	-1072
▁instead	-1073
▁mess	-1074
▁appre	-1075
▁share	-1076
▁throw	-1077
▁young	-1078
arch	-1079
▁gun	-1080
where	-1081
▁pict	-1082
▁entire	-1083
▁country	-1084
▁picture	-1085
icle	-1086
▁fair	-1087
▁meme	-1088
▁hot	-1089
▁non	-1090
acter	-1091
▁cute	-1092
▁send	-1093
▁class	-1094
▁house	-1095
▁downvote	-1096
lve	-1097
ode	-1098
ific	-1099
▁opp	-1100
umber	-1101
▁link	-1102
▁experience	-1103
▁cap	-1104
▁des	-1105
▁save	-1106
▁corre	-1107
▁thread	-1108
rap	-1109
▁es	-1110
▁ev	-1111
ween	-1112
▁bud	-1113
▁ign	-1114
▁mis	-1115
▁wel	-1116
▁base	-1117
▁explain	-1118
▁bu	-1119
land	-1120
ional	-1121
▁appreciate	-1122
▁able	-1123
▁food	-1124
▁full	-1125
▁hold	-1126
▁moment	-1127
▁between	-1128
▁perfect	-1129
ited	-1130
▁age	-1131
▁bus	-1132
▁dad	-1133
▁sweet	-1134
ify	-1135
▁ma	-1136
eric	-1137
anger	-1138
▁coup	-1139
▁drive	-1140
▁deserve	-1141
▁welcome	-1142
ans	-1143
ont	-1144
▁tb	-1145
oint	-1146
ular	-1147
▁mod	-1148
ument	-1149
ertain	-1150
uation	-1151
▁phone	-1152
▁chance	-1153
imp	-1154
iot	-1155
itle	-1156
▁espe	-1157
▁commun	-1158
▁rather	-1159
▁thought	-1160
▁character	-1161
air	-1162
man	-1163
ball	-1164
vent	-1165
vern	-1166
▁ann	-1167
▁dead	-1168
▁foot	-1169
▁polit	-1170
▁minute	-1171
▁totally	-1172
▁especially	-1173
ject	-1174
▁low	-1175
▁tho	-1176
ility	-1177
▁beat	-1178
gether	-1179
▁intern	-1180
▁respon	-1181
bt	-1182
ety	-1183
▁mine	-1184
▁star	-1185
▁heart	-1186
▁listen	-1187
▁number	-1188
▁feeling	-1189
▁bar	-1190
▁red	-1191
▁speak	-1192
▁stick	-1193
uu	-1194
oud	-1195
haha	-1196
▁govern	-1197
▁ton	-1198
▁fire	-1199
▁grow	-1200
▁level	-1201
▁write	-1202
▁relation	-1203
▁together	-1204
▁completely	-1205
reen	-1206
▁cut	-1207
▁case	-1208
▁couldn	-1209
▁except	-1210
▁health	-1211
▁curious	-1212
▁past	-1213
gin	-1214
ten	-1215
▁av	-1216
grat	-1217
gust	-1218
oose	-1219
▁contro	-1220
▁congrat	-1221
▁disgust	-1222
cy	-1223
▁vi	-1224
▁ya	-1225
ated	-1226
itch	-1227
▁met	-1228
▁rid	-1229
▁plan	-1230
▁wife	-1231
▁awful	-1232
▁spend	-1233
▁strong	-1234
▁del	-1235
▁lie	-1236
▁shame	-1237
▁situation	-1238
unk	-1239
▁couple	-1240
io	-1241
ient	-1242
swer	-1243
▁par	-1244
▁type	-1245
▁power	-1246
▁answer	-1247
oth	-1248
leep	-1249
tion	-1250
▁epis	-1251
▁hair	-1252
▁americ	-1253
▁social	-1254
▁seriously	-1255
sy	-1256
▁inv	-1257
ource	-1258
▁each	-1259
▁fore	-1260
▁song	-1261
▁wear	-1262
▁single	-1263
▁episode	-1264
eral	-1265
iness	-1266
▁early	-1267
▁idiot	-1268
▁government	-1269
▁walk	-1270
▁quite	-1271
▁relationship	-1272
more	-1273
ality	-1274
▁meet	-1275
▁simp	-1276
▁stra	-1277
▁unfort	-1278
▁article	-1279
aim	-1280
ever	-1281
▁mad	-1282
▁gold	-1283
illion	-1284
▁scare	-1285
▁unfortun	-1286
na	-1287
outh	-1288
▁fut	-1289
▁set	-1290
▁book	-1291
▁drop	-1292
▁attack	-1293
▁notice	-1294
uc	-1295
▁aut	-1296
▁spec	-1297
▁disapp	-1298
rif	-1299
sic	-1300
▁ant	-1301
▁har	-1302
▁tbh	-1303
▁cake	-1304
▁fake	-1305
▁racist	-1306
▁control	-1307
▁correct	-1308
res	-1309
▁mid	-1310
▁unc	-1311
▁val	-1312
▁dist	-1313
▁pres	-1314
▁soon	-1315
▁alone	-1316
ulation	-1317
▁anymore	-1318
dle	-1319
row	-1320
set	-1321
▁nah	-1322
▁shot	-1323
reddit	-1324
▁troll	-1325
▁assume	-1326
▁future	-1327
▁cal	-1328
▁pur	-1329
▁form	-1330
▁course	-1331
▁nobody	-1332
inge	-1333
▁mother	-1334
ror	-1335
▁ban	-1336
▁quick	-1337
av	-1338
▁hy	-1339
▁hist	-1340
▁horrible	-1341
scri	-1342
▁emp	-1343
▁anyway	-1344
lo	-1345
ator	-1346
▁cre	-1347
▁claim	-1348
gry	-1349
ctor	-1350
ital	-1351
▁hug	-1352
▁sim	-1353
astic	-1354
▁body	-1355
▁water	-1356
▁advice	-1357
▁internet	-1358
▁disappoint	-1359
acy	-1360
▁fast	-1361
▁step	-1362
▁catch	-1363
▁steal	-1364
▁basically	-1365
▁subreddit	-1366
reme	-1367
▁cop	-1368
▁mor	-1369
istic	-1370
▁late	-1371
▁rule	-1372
▁account	-1373
ube	-1374
▁det	-1375
▁fig	-1376
▁bear	-1377
ensive	-1378
▁trade	-1379
▁normal	-1380
▁finally	-1381
ork	-1382
icul	-1383
ouch	-1384
▁ligh	-1385
▁safe	-1386
▁sick	-1387
▁drink	-1388
▁three	-1389
▁source	-1390
▁upvote	-1391
▁brother	-1392
▁mention	-1393
▁possible	-1394
ium	-1395
▁col	-1396
▁ele	-1397
▁jer	-1398
ublic	-1399
▁city	-1400
idence	-1401
▁black	-1402
▁reply	-1403
▁short	-1404
▁title	-1405
▁figure	-1406
▁serious	-1407
▁lad	-1408
itive	-1409
▁left	-1410
▁remo	-1411
▁obviously	-1412
gg	-1413
eep	-1414
hhhh	-1415
▁pen	-1416
▁vis	-1417
ently	-1418
▁cent	-1419
▁huge	-1420
▁iron	-1421
▁shut	-1422
▁music	-1423
▁party	-1424
▁sleep	-1425
▁small	-1426
▁follow	-1427
▁certain	-1428
▁excited	-1429
oid	-1430
▁emb	-1431
▁mag	-1432
▁sug	-1433
▁burn	-1434
▁phot	-1435
▁scen	-1436
▁wall	-1437
▁later	-1438
▁hopefully	-1439
que	-1440
uss	-1441
ault	-1442
stem	-1443
▁idk	-1444
▁holy	-1445
▁pull	-1446
▁sort	-1447
▁stud	-1448
▁usually	-1449
gan	-1450
oun	-1451
ury	-1452
▁dur	-1453
antly	-1454
▁lead	-1455
▁main	-1456
▁mate	-1457
▁death	-1458
▁light	-1459
▁prote	-1460
▁remove	-1461
▁response	-1462
fl	-1463
ze	-1464
oul	-1465
▁arm	-1466
▁pet	-1467
ution	-1468
▁goal	-1469
▁user	-1470
▁allow	-1471
▁often	-1472
▁import	-1473
▁system	-1474
▁unless	-1475
▁clearly	-1476
ost	-1477
ove	-1478
▁di	-1479
ison	-1480
▁son	-1481
gress	-1482
▁unfortunately	-1483
bo	-1484
▁ear	-1485
▁gra	-1486
▁room	-1487
▁sell	-1488
▁colle	-1489
▁confuse	-1490
▁extreme	-1491
▁history	-1492
asc	-1493
oop	-1494
▁mur	-1495
ature	-1496
right	-1497
▁cree	-1498
▁mist	-1499
ference	-1500
▁argument	-1501
▁_	-1502
raid	-1503
▁are	-1504
▁eng	-1505
ology	-1506
▁fail	-1507
action	-1508
▁group	-1509
▁match	-1510
▁afraid	-1511
key	-1512
lves	-1513
ried	-1514
▁fil	-1515
▁pat	-1516
imate	-1517
▁area	-1518
▁cold	-1519
selves	-1520
▁brain	-1521
▁order	-1522
▁photo	-1523
▁incred	-1524
▁suppose	-1525
mpt	-1526
▁dem	-1527
▁fix	-1528
▁wan	-1529
▁trans	-1530
gy	-1531
ape	-1532
irc	-1533
ield	-1534
igin	-1535
▁cri	-1536
▁pot	-1537
▁sal	-1538
▁sme	-1539
ating	-1540
ister	-1541
▁dire	-1542
▁fant	-1543
▁yout	-1544
▁clear	-1545
▁choose	-1546
▁difference	-1547
fer	-1548
irt	-1549
ton	-1550
ibly	-1551
lish	-1552
▁ment	-1553
▁term	-1554
▁build	-1555
▁const	-1556
▁doubt	-1557
▁force	-1558
▁white	-1559
▁likely	-1560
▁origin	-1561
▁police	-1562
▁report	-1563
▁outside	-1564
▁straight	-1565
ale	-1566
ier	-1567
sed	-1568
▁ce	-1569
ision	-1570
▁piss	-1571
atever	-1572
▁shouldn	-1573
▁surprise	-1574
▁whatever	-1575
cc	-1576
gue	-1577
xic	-1578
▁bor	-1579
▁sat	-1580
▁vie	-1581
▁skin	-1582
▁annoy	-1583
▁hilar	-1584
ational	-1585
▁actual	-1586
▁choice	-1587
▁during	-1588
▁tonight	-1589
ram	-1590
ubw	-1591
vant	-1592
▁goo	-1593
▁imm	-1594
▁log	-1595
▁yep	-1596
ender	-1597
▁cost	-1598
▁creep	-1599
▁liber	-1600
▁disgusting	-1601
cel	-1602
▁inj	-1603
aster	-1604
ubwubw	-1605
▁wanna	-1606
▁finish	-1607
▁apparent	-1608
any	-1609
ear	-1610
iece	-1611
▁bed	-1612
▁ner	-1613
▁tax	-1614
▁treat	-1615
▁trust	-1616
▁cringe	-1617
▁youtube	-1618
▁complain	-1619
sn	-1620
uly	-1621
name	-1622
▁anim	-1623
▁bull	-1624
▁cond	-1625
▁dest	-1626
▁round	-1627
▁current	-1628
br	-1629
dge	-1630
▁pic	-1631
▁mass	-1632
▁blame	-1633
▁dream	-1634
▁hilarious	-1635
aw	-1636
by	-1637
▁drug	-1638
▁rele	-1639
▁angry	-1640
▁block	-1641
▁grand	-1642
▁prove	-1643
▁america	-1644
▁attract	-1645
yy	-1646
uth	-1647
▁er	-1648
▁hi	-1649
▁ug	-1650
irth	-1651
lude	-1652
mend	-1653
▁beh	-1654
ffect	-1655
▁hang	-1656
▁sent	-1657
▁cheer	-1658
▁cover	-1659
▁embar	-1660
▁legit	-1661
▁shock	-1662
▁smell	-1663
▁create	-1664
▁decide	-1665
▁proper	-1666
▁similar	-1667
▁important	-1668
▁apparently	-1669
ys	-1670
fit	-1671
▁fat	-1672
▁fit	-1673
▁uni	-1674
▁emot	-1675
▁them	-1676
▁price	-1677
▁sugge	-1678
▁train	-1679
▁murder	-1680
▁view	-1681
▁birth	-1682
▁event	-1683
▁waste	-1684
▁doctor	-1685
▁inform	-1686
▁option	-1687
▁respect	-1688
ler	-1689
lid	-1690
mor	-1691
form	-1692
▁due	-1693
▁odd	-1694
inger	-1695
▁lady	-1696
▁blood	-1697
iculous	-1698
▁accept	-1699
▁delete	-1700
▁public	-1701
▁service	-1702
he	-1703
no	-1704
ief	-1705
ustr	-1706
▁air	-1707
▁eff	-1708
▁mil	-1709
▁net	-1710
▁roll	-1711
scribe	-1712
▁produ	-1713
▁ready	-1714
▁company	-1715
▁ridiculous	-1716
ior	-1717
▁huh	-1718
▁demo	-1719
▁nope	-1720
▁viol	-1721
▁buddy	-1722
▁canad	-1723
▁front	-1724
▁truly	-1725
▁effect	-1726
▁hahaha	-1727
▁screen	-1728
▁themselves	-1729
ift	-1730
▁him	-1731
▁squ	-1732
▁rape	-1733
▁ruin	-1734
▁ugly	-1735
▁freak	-1736
▁legal	-1737
▁scene	-1738
▁store	-1739
▁million	-1740
▁position	-1741
▁interested	-1742
tf	-1743
olve	-1744
rant	-1745
view	-1746
▁ugh	-1747
itter	-1748
▁road	-1749
▁league	-1750
▁scared	-1751
▁embarra	-1752
▁himself	-1753
▁reference	-1754
cr	-1755
irm	-1756
izz	-1757
atic	-1758
iant	-1759
▁loc	-1760
▁hasn	-1761
▁loss	-1762
▁clean	-1763
▁ignor	-1764
▁behind	-1765
▁attention	-1766
tc	-1767
eap	-1768
rib	-1769
ling	-1770
sych	-1771
▁blow	-1772
▁mult	-1773
▁prov	-1774
▁push	-1775
▁slow	-1776
▁proud	-1777
▁sadly	-1778
▁trash	-1779
▁animal	-1780
▁compare	-1781
▁discuss	-1782
▁general	-1783
bs	-1784
▁nor	-1785
▁anti	-1786
▁pack	-1787
▁vers	-1788
▁lucky	-1789
▁press	-1790
▁psych	-1791
▁touch	-1792
▁alright	-1793
▁include	-1794
▁special	-1795
▁business	-1796
▁personally	-1797
rove	-1798
▁gar	-1799
▁jud	-1800
▁tip	-1801
agree	-1802
ample	-1803
▁dark	-1804
▁feed	-1805
▁near	-1806
▁soci	-1807
▁cheap	-1808
▁truth	-1809
▁amount	-1810
▁college	-1811
▁example	-1812
▁mistake	-1813
▁disagree	-1814
con	-1815
▁da	-1816
cern	-1817
fess	-1818
▁anx	-1819
▁hus	-1820
▁ice	-1821
verse	-1822
▁stat	-1823
▁test	-1824
▁wake	-1825
▁regard	-1826
▁thanks	-1827
▁original	-1828
ina	-1829
aper	-1830
band	-1831
ency	-1832
lleg	-1833
▁cow	-1834
▁smo	-1835
▁card	-1836
▁conc	-1837
▁crit	-1838
▁deep	-1839
▁rich	-1840
▁tech	-1841
▁tire	-1842
▁admit	-1843
▁conte	-1844
▁illeg	-1845
▁contin	-1846
▁danger	-1847
▁excuse	-1848
▁google	-1849
▁middle	-1850
▁relate	-1851
▁concern	-1852
▁politic	-1853
▁contract	-1854
▁extremely	-1855
off	-1856
ning	-1857
▁imo	-1858
▁tur	-1859
▁circ	-1860
▁expl	-1861
▁hero	-1862
▁reco	-1863
▁draft	-1864
▁piece	-1865
▁smile	-1866
▁action	-1867
▁depend	-1868
▁medium	-1869
▁forward	-1870
▁message	-1871
ero	-1872
oof	-1873
▁bi	-1874
like	-1875
rify	-1876
▁aff	-1877
arely	-1878
▁chee	-1879
▁cult	-1880
▁spot	-1881
▁wind	-1882
▁avoid	-1883
▁chick	-1884
▁space	-1885
▁creepy	-1886
▁ignore	-1887
▁regret	-1888
▁husband	-1889
▁strange	-1890
▁community	-1891
omb	-1892
rew	-1893
back	-1894
illy	-1895
ural	-1896
▁bur	-1897
▁div	-1898
▁hun	-1899
spect	-1900
▁jump	-1901
▁snow	-1902
▁cheat	-1903
▁common	-1904
▁democr	-1905
▁insane	-1906
▁mostly	-1907
zz	-1908
arc	-1909
med	-1910
tom	-1911
pper	-1912
rage	-1913
▁hat	-1914
▁ill	-1915
▁upd	-1916
ively	-1917
▁morn	-1918
▁pray	-1919
▁prom	-1920
▁purp	-1921
▁text	-1922
▁trip	-1923
▁bless	-1924
▁coach	-1925
▁gross	-1926
▁upset	-1927
sterday	-1928
▁double	-1929
fortable	-1930
▁morning	-1931
▁worried	-1932
▁political	-1933
▁yesterday	-1934
ric	-1935
▁mr	-1936
aaaa	-1937
uine	-1938
▁bat	-1939
▁boo	-1940
andom	-1941
▁dare	-1942
▁prop	-1943
▁abuse	-1944
▁bunch	-1945
▁offer	-1946
▁prefer	-1947
▁genuine	-1948
▁twitter	-1949
ru	-1950
lay	-1951
unt	-1952
▁cam	-1953
▁fly	-1954
▁crap	-1955
▁door	-1956
▁pizz	-1957
▁cross	-1958
▁taste	-1959
ression	-1960
▁inside	-1961
▁insult	-1962
▁online	-1963
▁sexual	-1964
▁confirm	-1965
▁forever	-1966
▁wonderful	-1967
ell	-1968
icy	-1969
▁awk	-1970
▁foc	-1971
▁beha	-1972
▁desp	-1973
▁hide	-1974
▁land	-1975
▁tear	-1976
▁adult	-1977
▁scary	-1978
▁toxic	-1979
▁bottom	-1980
▁therap	-1981
▁awkward	-1982
▁accident	-1983
hhh	-1984
▁ut	-1985
serv	-1986
wards	-1987
▁kick	-1988
▁note	-1989
▁pizza	-1990
ization	-1991
▁mental	-1992
▁evidence	-1993
▁president	-1994
ave	-1995
ili	-1996
▁eu	-1997
▁nd	-1998
▁oo	-1999
▁ur	-2000
arge	-2001
rist	-2002
room	-2003
▁nat	-2004
▁pan	-2005
▁sun	-2006
alent	-2007
ounce	-2008
▁film	-2009
▁none	-2010
ommend	-2011
verage	-2012
▁above	-2013
▁judge	-2014
▁mouth	-2015
▁score	-2016
▁voice	-2017
▁canada	-2018
▁random	-2019
▁result	-2020
▁respond	-2021
▁version	-2022
▁username	-2023
▁recommend	-2024
go	-2025
how	-2026
roy	-2027
▁vs	-2028
wise	-2029
▁deb	-2030
▁etc	-2031
▁pun	-2032
▁yup	-2033
ingly	-2034
▁beer	-2035
▁fasc	-2036
▁jeal	-2037
▁phys	-2038
▁zero	-2039
▁along	-2040
▁aware	-2041
▁extra	-2042
▁visit	-2043
▁effort	-2044
▁handle	-2045
▁convers	-2046
▁illegal	-2047
▁involve	-2048
▁jealous	-2049
▁sentence	-2050
▁statement	-2051
ies	-2052
jor	-2053
loy	-2054
ney	-2055
ooo	-2056
▁tv	-2057
iety	-2058
▁neg	-2059
▁vac	-2060
usion	-2061
▁drag	-2062
▁fear	-2063
▁lack	-2064
▁summ	-2065
iction	-2066
▁pract	-2067
▁teach	-2068
▁easily	-2069
▁manage	-2070
▁market	-2071
▁simple	-2072
▁reality	-2073
▁society	-2074
▁decision	-2075
▁reaction	-2076
ph	-2077
est	-2078
nel	-2079
▁yo	-2080
book	-2081
sess	-2082
vert	-2083
▁lab	-2084
▁mem	-2085
▁diff	-2086
▁russ	-2087
▁surv	-2088
▁alive	-2089
▁color	-2090
▁quote	-2091
▁sport	-2092
▁compet	-2093
▁father	-2094
▁office	-2095
▁return	-2096
▁scream	-2097
▁simply	-2098
▁sister	-2099
▁update	-2100
▁destroy	-2101
▁healthy	-2102
▁provide	-2103
▁continue	-2104
ps	-2105
rr	-2106
isk	-2107
yle	-2108
eeee	-2109
reet	-2110
vest	-2111
▁den	-2112
▁fal	-2113
▁hmm	-2114
▁mix	-2115
iment	-2116
quire	-2117
▁draw	-2118
▁porn	-2119
▁priv	-2120
▁apart	-2121
▁focus	-2122
▁large	-2123
▁major	-2124
▁favour	-2125
▁multip	-2126
▁average	-2127
▁contact	-2128
▁playoff	-2129
▁pretend	-2130
▁science	-2131
▁football	-2132
▁fantastic	-2133
▁conversation	-2134
ta	-2135
yc	-2136
ipe	-2137
enty	-2138
lace	-2139
orce	-2140
▁ain	-2141
▁fle	-2142
▁fre	-2143
▁hom	-2144
▁ten	-2145
▁atte	-2146
▁forg	-2147
▁info	-2148
▁park	-2149
▁rock	-2150
▁seat	-2151
▁soul	-2152
▁accur	-2153
▁carry	-2154
▁drunk	-2155
▁fault	-2156
▁offic	-2157
▁techn	-2158
aughter	-2159
▁appear	-2160
▁charge	-2161
▁decent	-2162
▁direct	-2163
▁fellow	-2164
▁injury	-2165
▁capital	-2166
▁obvious	-2167
▁annoying	-2168
▁standard	-2169
▁certainly	-2170
▁embarrass	-2171
▁everybody	-2172
▁somewhere	-2173
att	-2174
olk	-2175
▁im	-2176
▁na	-2177
etic	-2178
weet	-2179
▁dev	-2180
▁nut	-2181
▁rev	-2182
acher	-2183
▁blue	-2184
▁comb	-2185
▁doll	-2186
▁join	-2187
▁suff	-2188
▁trou	-2189
▁commit	-2190
▁defend	-2191
▁record	-2192
▁series	-2193
▁attempt	-2194
▁defense	-2195
▁birthday	-2196
▁otherwise	-2197
▁information	-2198
ii	-2199
ob	-2200
iod	-2201
oke	-2202
sey	-2203
urb	-2204
▁uh	-2205
arma	-2206
raph	-2207
uuuu	-2208
▁mer	-2209
▁suc	-2210
arian	-2211
▁camp	-2212
▁cook	-2213
▁cred	-2214
▁educ	-2215
▁fill	-2216
▁lock	-2217
▁rate	-2218
▁town	-2219
▁apply	-2220
▁begin	-2221
▁behav	-2222
▁crack	-2223
▁elect	-2224
▁femin	-2225
▁girlf	-2226
▁moder	-2227
▁tired	-2228
▁value	-2229
oooooooo	-2230
▁protect	-2231
▁somehow	-2232
▁suggest	-2233
▁teacher	-2234
▁trouble	-2235
▁confused	-2236
▁genuinely	-2237
▁girlfriend	-2238
▁incredibly	-2239
bit	-2240
uel	-2241
▁eh	-2242
▁pm	-2243
▁box	-2244
▁rip	-2245
▁smh	-2246
light	-2247
▁chan	-2248
▁jerk	-2249
▁ride	-2250
friend	-2251
▁court	-2252
▁earth	-2253
▁marry	-2254
▁weren	-2255
▁bother	-2256
▁design	-2257
▁memory	-2258
▁period	-2259
▁slight	-2260
▁liberal	-2261
▁profess	-2262
▁recently	-2263
oe	-2264
bor	-2265
che	-2266
rup	-2267
▁uk	-2268
bage	-2269
iver	-2270
▁lay	-2271
▁occ	-2272
▁vir	-2273
▁quit	-2274
▁argue	-2275
▁breat	-2276
▁crime	-2277
▁green	-2278
▁organ	-2279
▁smart	-2280
▁south	-2281
▁third	-2282
▁tomor	-2283
▁barely	-2284
▁repost	-2285
▁weight	-2286
▁content	-2287
▁partner	-2288
▁require	-2289
▁personal	-2290
ik	-2291
my	-2292
to	-2293
tw	-2294
dom	-2295
owl	-2296
angu	-2297
duce	-2298
ving	-2299
work	-2300
▁adv	-2301
▁doc	-2302
▁tar	-2303
▁plus	-2304
▁warm	-2305
▁shirt	-2306
▁skill	-2307
▁tough	-2308
▁threat	-2309
▁quality	-2310
▁release	-2311
▁success	-2312
▁tomorrow	-2313
▁favourite	-2314
▁attractive	-2315
hor	-2316
hole	-2317
▁flo	-2318
▁mot	-2319
▁tre	-2320
▁wtf	-2321
icult	-2322
▁calm	-2323
▁cust	-2324
▁rece	-2325
▁risk	-2326
▁vict	-2327
▁weed	-2328
▁screw	-2329
▁tweet	-2330
▁uncom	-2331
ination	-2332
▁garbage	-2333
▁improve	-2334
▁progress	-2335
▁stranger	-2336
de	-2337
ager	-2338
rest	-2339
shit	-2340
▁oil	-2341
▁rap	-2342
▁sky	-2343
ledge	-2344
▁folk	-2345
▁heav	-2346
▁path	-2347
▁rese	-2348
▁stri	-2349
ential	-2350
▁bitch	-2351
▁langu	-2352
▁solid	-2353
▁twice	-2354
▁damage	-2355
▁finger	-2356
▁jersey	-2357
▁search	-2358
▁within	-2359
▁conserv	-2360
▁student	-2361
▁describe	-2362
▁language	-2363
▁currently	-2364
ex	-2365
fa	-2366
ker	-2367
asty	-2368
cket	-2369
rate	-2370
▁est	-2371
▁typ	-2372
ially	-2373
uggle	-2374
ulate	-2375
▁conv	-2376
▁meat	-2377
▁page	-2378
▁race	-2379
▁final	-2380
▁moron	-2381
▁oppos	-2382
▁owner	-2383
▁queen	-2384
▁refer	-2385
▁silly	-2386
▁tooth	-2387
▁career	-2388
▁desper	-2389
▁ground	-2390
▁invest	-2391
▁necess	-2392
▁plenty	-2393
▁anxiety	-2394
▁chicken	-2395
▁context	-2396
▁process	-2397
▁replace	-2398
▁expensive	-2399
iny	-2400
ogy	-2401
▁rd	-2402
comp	-2403
here	-2404
▁bre	-2405
▁ult	-2406
inate	-2407
velop	-2408
▁clar	-2409
▁shop	-2410
▁teen	-2411
▁yike	-2412
ration	-2413
resent	-2414
▁karma	-2415
▁neigh	-2416
▁raise	-2417
▁basket	-2418
▁prison	-2419
▁refuse	-2420
▁develop	-2421
▁emotion	-2422
▁purpose	-2423
▁terrify	-2424
▁anywhere	-2425
▁daughter	-2426
▁facebook	-2427
▁positive	-2428
▁congratulation	-2429
hol	-2430
let	-2431
sec	-2432
mare	-2433
tern	-2434
▁mob	-2435
▁bank	-2436
▁fish	-2437
▁four	-2438
▁tank	-2439
▁tend	-2440
▁ident	-2441
▁local	-2442
▁logic	-2443
▁pleas	-2444
▁reach	-2445
ibility	-2446
▁boring	-2447
▁cancer	-2448
▁legend	-2449
▁street	-2450
▁however	-2451
▁accurate	-2452
▁multiple	-2453
▁somebody	-2454
▁specific	-2455
▁dangerous	-2456
▁difficult	-2457
▁nightmare	-2458
▁dm	-2459
▁eq	-2460
▁ju	-2461
ting	-2462
▁bag	-2463
▁ben	-2464
▁btw	-2465
▁dun	-2466
▁enc	-2467
▁pod	-2468
▁sir	-2469
▁vol	-2470
unity	-2471
▁jail	-2472
▁kiss	-2473
▁loud	-2474
▁temp	-2475
▁unre	-2476
orable	-2477
▁brown	-2478
▁chill	-2479
▁false	-2480
▁incel	-2481
▁truck	-2482
▁critic	-2483
▁driver	-2484
▁highly	-2485
▁remain	-2486
▁stream	-2487
▁summer	-2488
▁channel	-2489
▁ignorant	-2490
▁practice	-2491
▁conservative	-2492
ked	-2493
ppy	-2494
thy	-2495
cell	-2496
gger	-2497
hood	-2498
late	-2499
▁aud	-2500
▁fur	-2501
▁key	-2502
▁spl	-2503
▁unp	-2504
▁busy	-2505
▁hire	-2506
▁jour	-2507
▁prog	-2508
▁rare	-2509
▁site	-2510
ground	-2511
ressed	-2512
▁glass	-2513
▁hello	-2514
▁sever	-2515
▁custom	-2516
▁frustr	-2517
▁switch	-2518
▁english	-2519
▁perform	-2520
▁weekend	-2521
ification	-2522
▁professional	-2523
ym	-2524
rit	-2525
▁ba	-2526
dden	-2527
▁dig	-2528
▁mir	-2529
▁sau	-2530
▁unf	-2531
▁ver	-2532
allen	-2533
orter	-2534
usive	-2535
▁band	-2536
▁bath	-2537
▁bene	-2538
▁club	-2539
▁fund	-2540
▁guil	-2541
▁weak	-2542
▁ahead	-2543
▁faith	-2544
▁gener	-2545
▁proof	-2546
▁track	-2547
▁trick	-2548
▁affect	-2549
▁battle	-2550
▁dollar	-2551
▁lovely	-2552
▁stress	-2553
▁sudden	-2554
▁suffer	-2555
▁talent	-2556
▁classic	-2557
▁american	-2558
▁research	-2559
▁boyfriend	-2560
▁interview	-2561
ubwubwubwubw	-2562
ec	-2563
era	-2564
uit	-2565
yer	-2566
▁bal	-2567
▁egg	-2568
▁inn	-2569
▁ram	-2570
▁sil	-2571
icket	-2572
orate	-2573
▁bill	-2574
▁chur	-2575
▁coff	-2576
▁king	-2577
▁pure	-2578
▁scam	-2579
▁till	-2580
▁west	-2581
▁wild	-2582
▁wing	-2583
▁champ	-2584
▁limit	-2585
▁serve	-2586
▁spell	-2587
cellent	-2588
▁apolog	-2589
▁beside	-2590
▁cheese	-2591
▁employ	-2592
▁harass	-2593
▁indeed	-2594
▁secret	-2595
▁asshole	-2596
▁challen	-2597
▁helpful	-2598
▁meaning	-2599
▁trigger	-2600
▁behavior	-2601
▁regardless	-2602
ask	-2603
oss	-2604
mail	-2605
▁deg	-2606
▁din	-2607
▁ped	-2608
▁van	-2609
▁corp	-2610
▁fort	-2611
▁nail	-2612
▁pill	-2613
▁port	-2614
▁pred	-2615
▁role	-2616
▁avail	-2617
▁vegan	-2618
ressive	-2619
▁church	-2620
▁credit	-2621
▁itself	-2622
▁partic	-2623
▁target	-2624
▁culture	-2625
▁despite	-2626
▁painful	-2627
▁product	-2628
▁struggle	-2629
▁excellent	-2630
asy	-2631
inc	-2632
oon	-2633
ray	-2634
▁alb	-2635
▁ath	-2636
▁bri	-2637
▁bug	-2638
▁gam	-2639
▁gas	-2640
▁rad	-2641
riate	-2642
▁chat	-2643
▁clue	-2644
▁five	-2645
▁flag	-2646
▁gift	-2647
▁hosp	-2648
▁pant	-2649
▁sand	-2650
▁sarc	-2651
▁sens	-2652
▁tree	-2653
▁vacc	-2654
▁magic	-2655
▁model	-2656
▁punch	-2657
▁smoke	-2658
▁solve	-2659
▁study	-2660
▁style	-2661
▁traff	-2662
ability	-2663
ication	-2664
▁decade	-2665
▁gender	-2666
▁lawyer	-2667
▁virgin	-2668
▁dumbass	-2669
▁popular	-2670
▁quickly	-2671
▁bullshit	-2672
▁slightly	-2673
▁available	-2674
▁represent	-2675
▁discussion	-2676
▁uncomfortable	-2677
dn	-2678
asm	-2679
lly	-2680
▁wo	-2681
rupt	-2682
▁fed	-2683
▁map	-2684
▁rob	-2685
▁sep	-2686
agram	-2687
▁cele	-2688
▁coll	-2689
▁crow	-2690
▁evil	-2691
▁lord	-2692
▁mode	-2693
▁prep	-2694
▁shoe	-2695
aurant	-2696
though	-2697
▁brave	-2698
▁click	-2699
▁creat	-2700
▁dance	-2701
▁flair	-2702
▁imply	-2703
▁intro	-2704
▁minor	-2705
▁swear	-2706
▁master	-2707
▁member	-2708
▁offend	-2709
▁billion	-2710
▁medical	-2711
▁project	-2712
▁realise	-2713
▁respons	-2714
▁adorable	-2715
▁negative	-2716
▁opposite	-2717
▁eventually	-2718
▁reasonable	-2719
▁restaurant	-2720
▁personality	-2721
ama	-2722
mer	-2723
▁bf	-2724
▁pu	-2725
anch	-2726
ario	-2727
down	-2728
post	-2729
sure	-2730
▁gor	-2731
▁hon	-2732
▁opt	-2733
rease	-2734
▁butt	-2735
▁dear	-2736
▁ring	-2737
▁spir	-2738
▁tran	-2739
ourage	-2740
▁badly	-2741
▁blind	-2742
▁valid	-2743
▁across	-2744
▁afford	-2745
▁circle	-2746
▁obsess	-2747
▁opport	-2748
▁orange	-2749
▁theory	-2750
▁careful	-2751
▁massive	-2752
▁private	-2753
▁although	-2754
▁hospital	-2755
▁neighbor	-2756
▁challenge	-2757
▁instagram	-2758
▁constantly	-2759
▁incredible	-2760
▁opportunity	-2761
hy	-2762
bel	-2763
ken	-2764
eech	-2765
shot	-2766
tain	-2767
▁civ	-2768
▁cuz	-2769
▁eth	-2770
cious	-2771
itude	-2772
ivity	-2773
urity	-2774
▁fool	-2775
▁godd	-2776
▁hole	-2777
▁hunt	-2778
▁repe	-2779
▁sake	-2780
▁giant	-2781
▁image	-2782
▁paper	-2783
▁pregn	-2784
▁table	-2785
▁bottle	-2786
▁forgot	-2787
▁nearly	-2788
▁shitty	-2789
▁winter	-2790
▁anyways	-2791
▁apology	-2792
▁besides	-2793
▁program	-2794
▁regular	-2795
▁traffic	-2796
▁document	-2797
▁entertain	-2798
mb	-2799
uh	-2800
eez	-2801
iet	-2802
mas	-2803
▁ol	-2804
▁xd	-2805
cast	-2806
ckey	-2807
irty	-2808
lect	-2809
rase	-2810
▁fet	-2811
▁hyp	-2812
▁rum	-2813
▁tag	-2814
▁tex	-2815
arily	-2816
bsite	-2817
▁bast	-2818
▁bomb	-2819
▁boot	-2820
▁disp	-2821
▁dump	-2822
▁lone	-2823
▁mach	-2824
▁mark	-2825
▁rain	-2826
▁rent	-2827
▁sexy	-2828
▁suit	-2829
▁tour	-2830
▁warn	-2831
▁album	-2832
▁board	-2833
▁china	-2834
▁dress	-2835
▁floor	-2836
▁speed	-2837
ossible	-2838
▁camera	-2839
▁christ	-2840
▁ironic	-2841
▁makeup	-2842
▁racism	-2843
▁recogn	-2844
▁retard	-2845
▁retire	-2846
▁shower	-2847
▁ticket	-2848
▁victim	-2849
▁survive	-2850
▁towards	-2851
▁website	-2852
▁everywhere	-2853
▁population	-2854
bi	-2855
ius	-2856
▁lm	-2857
▁ml	-2858
▁ps	-2859
iron	-2860
ivid	-2861
yond	-2862
▁esc	-2863
▁gay	-2864
▁gri	-2865
▁ide	-2866
▁pal	-2867
▁rom	-2868
cohol	-2869
iting	-2870
▁cast	-2871
▁plat	-2872
▁prof	-2873
▁rude	-2874
▁spin	-2875
▁wash	-2876
▁email	-2877
▁horse	-2878
▁innoc	-2879
▁irony	-2880
▁rough	-2881
▁split	-2882
▁total	-2883
vantage	-2884
▁arrest	-2885
▁beyond	-2886
▁border	-2887
▁celebr	-2888
▁mobile	-2889
▁worker	-2890
▁alcohol	-2891
▁individ	-2892
▁neither	-2893
▁present	-2894
▁several	-2895
▁willing	-2896
▁supporter	-2897
▁wholesome	-2898
▁impossible	-2899
ai	-2900
fs	-2901
yn	-2902
gth	-2903
hob	-2904
ied	-2905
mon	-2906
ocr	-2907
ron	-2908
▁bs	-2909
▁qb	-2910
aint	-2911
ergy	-2912
load	-2913
ruct	-2914
▁cit	-2915
▁dat	-2916
▁spo	-2917
ether	-2918
inity	-2919
riage	-2920
▁bang	-2921
▁bird	-2922
▁cash	-2923
▁hype	-2924
▁male	-2925
▁meal	-2926
▁prev	-2927
▁ship	-2928
▁soft	-2929
▁being	-2930
▁brill	-2931
▁bully	-2932
▁field	-2933
▁finan	-2934
▁insur	-2935
▁loser	-2936
▁north	-2937
▁peace	-2938
▁yours	-2939
▁accord	-2940
▁anarch	-2941
▁coffee	-2942
▁killer	-2943
▁lesson	-2944
▁poster	-2945
▁speech	-2946
▁window	-2947
▁benefit	-2948
▁dislike	-2949
▁divorce	-2950
▁promise	-2951
▁receive	-2952
▁therapy	-2953
▁directly	-2954
▁election	-2955
▁national	-2956
▁signific	-2957
▁suddenly	-2958
▁emotional	-2959
▁happiness	-2960
▁basketball	-2961
▁individual	-2962
▁disappointed	-2963
ky	-2964
aly	-2965
eel	-2966
ida	-2967
ipp	-2968
nal	-2969
une	-2970
iler	-2971
king	-2972
over	-2973
spir	-2974
▁cup	-2975
▁kit	-2976
▁vag	-2977
idate	-2978
minal	-2979
under	-2980
▁bite	-2981
▁bore	-2982
▁bowl	-2983
▁fema	-2984
▁prim	-2985
▁quar	-2986
▁rank	-2987
▁root	-2988
▁yell	-2989
lation	-2990
▁civil	-2991
▁cloth	-2992
▁daily	-2993
▁disco	-2994
▁fresh	-2995
▁immig	-2996
▁range	-2997
▁relax	-2998
▁trump	-2999
▁hockey	-3000
▁policy	-3001
▁spirit	-3002
▁assault	-3003
▁bastard	-3004
▁counter	-3005
▁machine	-3006
▁natural	-3007
▁whether	-3008
▁customer	-3009
▁entirely	-3010
▁marriage	-3011
▁whenever	-3012
▁recognize	-3013
und	-3014
▁pc	-3015
aker	-3016
apon	-3017
uate	-3018
▁aim	-3019
▁alt	-3020
▁bon	-3021
▁ger	-3022
▁gho	-3023
▁oof	-3024
▁scr	-3025
ament	-3026
iliar	-3027
▁bone	-3028
▁brit	-3029
▁chic	-3030
▁tool	-3031
▁wise	-3032
ribute	-3033
▁crowd	-3034
▁guard	-3035
▁heavy	-3036
▁knock	-3037
▁penis	-3038
▁separ	-3039
▁smash	-3040
▁taxis	-3041
anation	-3042
▁debate	-3043
▁degree	-3044
▁female	-3045
▁object	-3046
▁server	-3047
▁spread	-3048
▁weapon	-3049
ifically	-3050
▁consist	-3051
▁depress	-3052
▁freedom	-3053
▁subject	-3054
▁increase	-3055
▁possibly	-3056
▁pressure	-3057
▁remindme	-3058
▁apologize	-3059
▁brilliant	-3060
▁condition	-3061
▁generally	-3062
▁perfectly	-3063
▁explanation	-3064
▁technically	-3065
kk	-3066
tt	-3067
boy	-3068
zen	-3069
▁rn	-3070
flix	-3071
idge	-3072
miss	-3073
rive	-3074
▁ast	-3075
▁ble	-3076
▁fro	-3077
▁jan	-3078
▁joy	-3079
▁nur	-3080
▁san	-3081
▁unl	-3082
antic	-3083
conom	-3084
icate	-3085
rench	-3086
▁bump	-3087
▁clap	-3088
▁dish	-3089
▁edge	-3090
▁gain	-3091
▁lane	-3092
▁lmfa	-3093
▁meth	-3094
▁mort	-3095
▁pink	-3096
▁prem	-3097
▁pump	-3098
▁wide	-3099
ortion	-3100
ustral	-3101
▁bench	-3102
▁brand	-3103
▁conne	-3104
▁ghost	-3105
▁gorge	-3106
▁milit	-3107
▁mount	-3108
▁nasty	-3109
▁author	-3110
▁button	-3111
▁goddam	-3112
▁surely	-3113
▁terror	-3114
spective	-3115
▁ability	-3116
▁anybody	-3117
▁austral	-3118
▁netflix	-3119
▁offense	-3120
▁useless	-3121
▁attitude	-3122
▁pathetic	-3123
▁education	-3124
▁insurance	-3125
▁knowledge	-3126
▁definition	-3127
▁depression	-3128
▁impressive	-3129
▁perspective	-3130
ba	-3131
nn	-3132
ato	-3133
cha	-3134
ery	-3135
iev	-3136
▁pp	-3137
ache	-3138
anda	-3139
ival	-3140
medi	-3141
▁dry	-3142
▁env	-3143
▁lip	-3144
▁mal	-3145
▁sac	-3146
▁uns	-3147
▁var	-3148
▁wit	-3149
field	-3150
▁brut	-3151
▁cart	-3152
▁copy	-3153
▁flor	-3154
▁grad	-3155
▁harm	-3156
▁init	-3157
▁neck	-3158
▁rise	-3159
▁size	-3160
▁upon	-3161
▁vibe	-3162
▁below	-3163
▁chief	-3164
▁crush	-3165
▁delic	-3166
▁demon	-3167
▁dirty	-3168
▁drama	-3169
▁flash	-3170
▁humor	-3171
▁insec	-3172
▁stock	-3173
▁artist	-3174
▁cancel	-3175
▁douche	-3176
▁econom	-3177
▁genius	-3178
▁golden	-3179
▁horror	-3180
▁lately	-3181
▁phrase	-3182
▁satire	-3183
▁aggress	-3184
▁concept	-3185
▁fantasy	-3186
▁herself	-3187
▁prepare	-3188
▁univers	-3189
▁gorgeous	-3190
▁hahahaha	-3191
▁innocent	-3192
▁pregnant	-3193
▁christmas	-3194
▁defensive	-3195
▁intention	-3196
▁socialist	-3197
▁generation	-3198
▁specifically	-3199
fy	-3200
aff	-3201
ago	-3202
athy	-3203
care	-3204
ilet	-3205
inct	-3206
ized	-3207
rope	-3208
▁abs	-3209
▁fac	-3210
▁gif	-3211
▁rot	-3212
board	-3213
ellig	-3214
osity	-3215
▁anal	-3216
▁buck	-3217
▁flat	-3218
▁foul	-3219
▁knee	-3220
▁lazy	-3221
▁load	-3222
▁masc	-3223
▁mill	-3224
▁plot	-3225
▁tiny	-3226
orious	-3227
▁shape	-3228
▁altern	-3229
▁center	-3230
▁clothe	-3231
▁energy	-3232
▁engage	-3233
▁immedi	-3234
▁injure	-3235
▁travel	-3236
▁unlike	-3237
▁yellow	-3238
▁entitle	-3239
▁federal	-3240
▁florida	-3241
▁russian	-3242
▁whoever	-3243
▁bathroom	-3244
▁convince	-3245
▁intellig	-3246
▁property	-3247
▁relevant	-3248
▁delicious	-3249
▁therapist	-3250
▁background	-3251
▁performance	-3252
do	-3253
zi	-3254
ald	-3255
arm	-3256
erg	-3257
lin	-3258
ons	-3259
reg	-3260
▁iq	-3261
▁mc	-3262
▁tf	-3263
acle	-3264
ease	-3265
imum	-3266
list	-3267
vous	-3268
▁gig	-3269
▁ire	-3270
▁rat	-3271
▁six	-3272
▁sol	-3273
▁til	-3274
arant	-3275
dding	-3276
erate	-3277
inder	-3278
liday	-3279
ption	-3280
retch	-3281
ribly	-3282
watch	-3283
▁boat	-3284
▁clip	-3285
▁deli	-3286
▁hadn	-3287
▁host	-3288
▁infl	-3289
▁rage	-3290
▁scot	-3291
▁scum	-3292
▁weal	-3293
▁wood	-3294
▁apple	-3295
▁comic	-3296
▁dodge	-3297
▁dunno	-3298
▁equal	-3299
▁lmfao	-3300
▁stone	-3301
▁sweat	-3302
▁topic	-3303
▁uncle	-3304
▁union	-3305
olution	-3306
▁access	-3307
▁beauty	-3308
▁burger	-3309
▁commer	-3310
▁corner	-3311
▁detail	-3312
▁german	-3313
▁guilty	-3314
▁impact	-3315
▁island	-3316
▁lonely	-3317
▁nation	-3318
▁profit	-3319
▁review	-3320
▁russia	-3321
▁address	-3322
▁chicago	-3323
▁foreign	-3324
▁holiday	-3325
▁insight	-3326
▁nervous	-3327
▁democrat	-3328
▁official	-3329
▁thinking	-3330
▁advantage	-3331
▁everytime	-3332
▁ignorance	-3333
▁necessary	-3334
▁potential	-3335
▁suggestion	-3336
emy	-3337
ole	-3338
ral	-3339
ule	-3340
▁fu	-3341
amed	-3342
reck	-3343
rect	-3344
ssed	-3345
▁equ	-3346
▁gre	-3347
▁gym	-3348
▁ham	-3349
▁hip	-3350
▁mac	-3351
▁max	-3352
▁mea	-3353
▁mut	-3354
▁nar	-3355
▁sen	-3356
▁sin	-3357
▁tie	-3358
▁toy	-3359
▁usa	-3360
▁yay	-3361
asion	-3362
ously	-3363
▁epic	-3364
▁hook	-3365
▁item	-3366
▁milk	-3367
▁snap	-3368
▁unex	-3369
ension	-3370
ousand	-3371
pected	-3372
▁chuck	-3373
▁compl	-3374
▁error	-3375
▁fully	-3376
▁plant	-3377
▁quiet	-3378
▁utter	-3379
▁fairly	-3380
▁leader	-3381
▁modern	-3382
▁punish	-3383
▁strike	-3384
▁toilet	-3385
▁transp	-3386
▁clarify	-3387
▁guarant	-3388
▁justify	-3389
▁outrage	-3390
▁overall	-3391
▁quarter	-3392
▁employee	-3393
▁pleasure	-3394
▁relative	-3395
▁thousand	-3396
▁curiosity	-3397
▁highlight	-3398
▁commercial	-3399
▁confidence	-3400
▁physically	-3401
▁screenshot	-3402
▁unexpected	-3403
▁embarrassing	-3404
ox	-3405
xe	-3406
aaa	-3407
ana	-3408
▁bb	-3409
▁ny	-3410
izen	-3411
lord	-3412
ssss	-3413
▁ash	-3414
▁aww	-3415
▁biz	-3416
▁got	-3417
▁obl	-3418
▁rub	-3419
▁sue	-3420
▁tor	-3421
break	-3422
ocate	-3423
▁adop	-3424
▁brex	-3425
▁chem	-3426
▁exec	-3427
▁hack	-3428
▁pair	-3429
▁rout	-3430
▁seek	-3431
▁shad	-3432
▁tall	-3433
▁wage	-3434
▁addit	-3435
▁basic	-3436
▁daddy	-3437
▁domin	-3438
▁frame	-3439
▁fruit	-3440
▁habit	-3441
▁mater	-3442
▁prime	-3443
▁sauce	-3444
▁staff	-3445
▁belong	-3446
▁breath	-3447
▁expose	-3448
▁hungry	-3449
▁letter	-3450
▁nature	-3451
▁repeat	-3452
▁sexist	-3453
▁citizen	-3454
▁comfort	-3455
▁journal	-3456
▁monster	-3457
▁patient	-3458
▁wedding	-3459
▁announce	-3460
▁feminist	-3461
▁investig	-3462
▁military	-3463
▁physical	-3464
▁republic	-3465
▁concerned	-3466
▁guarantee	-3467
▁instantly	-3468
▁socialism	-3469
▁comfortable	-3470
▁responsible	-3471
▁disappointing	-3472
ka	-3473
alm	-3474
bid	-3475
den	-3476
lex	-3477
ony	-3478
oph	-3479
ota	-3480
▁bc	-3481
▁ge	-3482
▁gf	-3483
▁tl	-3484
▁um	-3485
cent	-3486
gery	-3487
haps	-3488
iate	-3489
port	-3490
quel	-3491
▁bee	-3492
▁cas	-3493
▁cyc	-3494
▁der	-3495
▁ess	-3496
▁ine	-3497
▁jap	-3498
▁men	-3499
▁nfl	-3500
▁vot	-3501
spire	-3502
▁boss	-3503
▁buff	-3504
▁cris	-3505
▁deny	-3506
▁east	-3507
▁gang	-3508
▁gate	-3509
▁hall	-3510
▁hill	-3511
▁inte	-3512
▁lean	-3513
▁nons	-3514
▁poly	-3515
▁reve	-3516
▁sale	-3517
▁spam	-3518
▁sund	-3519
▁agent	-3520
▁appro	-3521
▁bizar	-3522
▁cruel	-3523
▁curse	-3524
▁deter	-3525
▁optim	-3526
▁react	-3527
▁satis	-3528
▁shake	-3529
▁straw	-3530
▁stren	-3531
imately	-3532
▁active	-3533
▁brutal	-3534
▁compar	-3535
▁demand	-3536
▁mirror	-3537
▁spider	-3538
ropriate	-3539
▁british	-3540
▁ireland	-3541
▁justice	-3542
▁perhaps	-3543
▁profile	-3544
▁stretch	-3545
▁discover	-3546
▁familiar	-3547
▁separate	-3548
▁desperate	-3549
▁particular	-3550
▁immediately	-3551
▁accidentally	-3552
ew	-3553
fc	-3554
ga	-3555
pa	-3556
sm	-3557
don	-3558
ino	-3559
kin	-3560
rel	-3561
▁gm	-3562
aign	-3563
aven	-3564
ille	-3565
iter	-3566
mine	-3567
ming	-3568
play	-3569
uary	-3570
xual	-3571
▁bay	-3572
▁dow	-3573
▁flu	-3574
▁fra	-3575
▁mic	-3576
▁mmm	-3577
▁mum	-3578
▁ske	-3579
epend	-3580
ookie	-3581
rated	-3582
▁bree	-3583
▁dang	-3584
▁excl	-3585
▁gree	-3586
▁heat	-3587
▁irre	-3588
▁onto	-3589
▁rant	-3590
▁trap	-3591
▁zone	-3592
▁bread	-3593
▁contr	-3594
▁grade	-3595
▁lunch	-3596
▁mexic	-3597
▁paran	-3598
▁patch	-3599
▁plate	-3600
▁pound	-3601
▁roast	-3602
▁twist	-3603
respect	-3604
▁accuse	-3605
▁comedy	-3606
▁dinner	-3607
▁donate	-3608
▁former	-3609
▁fuckin	-3610
▁living	-3611
▁conspir	-3612
▁disturb	-3613
▁goddamn	-3614
▁married	-3615
▁podcast	-3616
▁selfish	-3617
▁surgery	-3618
▁handsome	-3619
▁majority	-3620
▁properly	-3621
▁scenario	-3622
▁shoulder	-3623
▁violence	-3624
▁democracy	-3625
▁encourage	-3626
▁impressed	-3627
▁religious	-3628
▁stupidity	-3629
▁disrespect	-3630
▁frustrating	-3631
▁unfortunate	-3632
▁organization	-3633
bby	-3634
iff	-3635
now	-3636
▁ot	-3637
▁ow	-3638
apse	-3639
born	-3640
coin	-3641
dred	-3642
illa	-3643
rael	-3644
rend	-3645
ront	-3646
sequ	-3647
▁ahh	-3648
▁ooh	-3649
▁ooo	-3650
▁pin	-3651
▁pra	-3652
▁pub	-3653
allas	-3654
hobic	-3655
▁ahhh	-3656
▁bake	-3657
▁blat	-3658
▁cand	-3659
▁fash	-3660
▁jack	-3661
▁mild	-3662
▁mock	-3663
▁nazi	-3664
▁nose	-3665
▁poll	-3666
▁rush	-3667
▁salt	-3668
▁solo	-3669
▁vent	-3670
aganda	-3671
icient	-3672
icious	-3673
season	-3674
tarian	-3675
▁bigot	-3676
▁disor	-3677
▁flame	-3678
▁honey	-3679
▁honor	-3680
▁knife	-3681
▁loose	-3682
▁moral	-3683
▁motiv	-3684
▁petty	-3685
▁salty	-3686
ievable	-3687
▁accent	-3688
▁accomp	-3689
▁butter	-3690
▁dallas	-3691
▁famous	-3692
▁fetish	-3693
▁french	-3694
▁hardly	-3695
▁reject	-3696
▁reward	-3697
▁rookie	-3698
hhhhhhhh	-3699
▁abusive	-3700
▁bizarre	-3701
▁failure	-3702
▁hundred	-3703
▁inspire	-3704
▁measure	-3705
▁reverse	-3706
▁typical	-3707
scription	-3708
▁abortion	-3709
▁campaign	-3710
▁criminal	-3711
▁glorious	-3712
▁headline	-3713
▁identify	-3714
▁independ	-3715
▁reminder	-3716
▁security	-3717
▁shitpost	-3718
▁strength	-3719
▁universe	-3720
▁candidate	-3721
▁direction	-3722
▁offensive	-3723
▁conspiracy	-3724
ji	-3725
emp	-3726
ien	-3727
ioc	-3728
irl	-3729
isc	-3730
ung	-3731
▁fy	-3732
▁ic	-3733
▁je	-3734
▁oc	-3735
▁td	-3736
ered	-3737
orie	-3738
ston	-3739
what	-3740
▁dod	-3741
▁enf	-3742
▁esp	-3743
▁fry	-3744
▁meh	-3745
▁pad	-3746
▁pee	-3747
▁reb	-3748
▁sem	-3749
▁spr	-3750
▁tim	-3751
▁woo	-3752
atory	-3753
cture	-3754
olate	-3755
ousin	-3756
▁alot	-3757
▁asap	-3758
▁athe	-3759
▁bike	-3760
▁brig	-3761
▁bruh	-3762
▁chip	-3763
▁desk	-3764
▁grab	-3765
▁heck	-3766
▁narc	-3767
▁scar	-3768
▁slap	-3769
▁stun	-3770
▁succ	-3771
▁tele	-3772
▁tier	-3773
▁trad	-3774
▁uber	-3775
▁wine	-3776
▁anger	-3777
▁autom	-3778
▁broad	-3779
▁choke	-3780
▁cream	-3781
▁datum	-3782
▁delus	-3783
▁frank	-3784
▁homop	-3785
▁outta	-3786
▁rumor	-3787
▁saint	-3788
▁stage	-3789
▁texas	-3790
▁theme	-3791
▁wreck	-3792
▁advert	-3793
▁asleep	-3794
▁belief	-3795
▁brexit	-3796
▁cousin	-3797
▁escape	-3798
▁expert	-3799
▁indust	-3800
▁israel	-3801
▁oppose	-3802
▁recent	-3803
▁scroll	-3804
▁signal	-3805
▁anxious	-3806
▁ashamed	-3807
▁consent	-3808
▁fascist	-3809
▁percent	-3810
▁plastic	-3811
▁champion	-3812
▁goodness	-3813
▁material	-3814
▁mountain	-3815
▁nonsense	-3816
▁solution	-3817
▁threaten	-3818
▁beginning	-3819
▁celebrate	-3820
▁communism	-3821
▁corporate	-3822
▁financial	-3823
▁capitalism	-3824
▁contribute	-3825
▁delusional	-3826
▁terrifying	-3827
▁libertarian	-3828
da	-3829
ey	-3830
li	-3831
pd	-3832
rs	-3833
aur	-3834
eam	-3835
oty	-3836
top	-3837
urd	-3838
acon	-3839
rely	-3840
▁ach	-3841
▁lic	-3842
▁nap	-3843
▁row	-3844
▁vid	-3845
ntown	-3846
onent	-3847
opath	-3848
▁bell	-3849
▁buzz	-3850
▁code	-3851
▁defe	-3852
▁dict	-3853
▁doom	-3854
▁flav	-3855
▁flip	-3856
▁loop	-3857
▁musc	-3858
▁qual	-3859
▁scri	-3860
▁span	-3861
▁stom	-3862
▁tong	-3863
opular	-3864
orrect	-3865
raphic	-3866
▁activ	-3867
▁anime	-3868
▁aside	-3869
▁chain	-3870
▁enemy	-3871
▁enter	-3872
▁manip	-3873
▁pitch	-3874
▁shave	-3875
▁shift	-3876
▁unbel	-3877
jection	-3878
lection	-3879
▁amazon	-3880
▁assist	-3881
▁bullet	-3882
▁coward	-3883
▁ending	-3884
▁heaven	-3885
▁hypocr	-3886
▁invite	-3887
▁millen	-3888
▁planet	-3889
▁poorly	-3890
▁reduce	-3891
▁reveal	-3892
▁sacrif	-3893
▁breathe	-3894
▁delight	-3895
▁discord	-3896
▁educate	-3897
▁feature	-3898
▁manager	-3899
▁minimum	-3900
▁prevent	-3901
▁primary	-3902
▁produce	-3903
▁suspect	-3904
▁violent	-3905
▁building	-3906
▁disorder	-3907
▁distance	-3908
▁downtown	-3909
▁feminism	-3910
▁friendly	-3911
▁location	-3912
▁normally	-3913
▁occasion	-3914
▁precious	-3915
▁retarded	-3916
▁somewhat	-3917
▁australia	-3918
▁communist	-3919
▁subscribe	-3920
▁unpopular	-3921
▁accomplish	-3922
▁healthcare	-3923
▁propaganda	-3924
▁alternative	-3925
▁possibility	-3926
fw	-3927
sa	-3928
sl	-3929
tr	-3930
bag	-3931
com	-3932
cut	-3933
ica	-3934
men	-3935
put	-3936
rem	-3937
yal	-3938
▁ca	-3939
▁du	-3940
▁mg	-3941
aire	-3942
cise	-3943
iest	-3944
ique	-3945
lead	-3946
tery	-3947
ummy	-3948
uous	-3949
wich	-3950
▁ack	-3951
▁bye	-3952
▁nba	-3953
▁pit	-3954
▁pls	-3955
▁rab	-3956
▁sav	-3957
ander	-3958
mmate	-3959
ocked	-3960
phone	-3961
uddle	-3962
ville	-3963
▁army	-3964
▁duck	-3965
▁earn	-3966
▁gent	-3967
▁iirc	-3968
▁leak	-3969
▁liar	-3970
▁lick	-3971
erable	-3972
▁among	-3973
▁beast	-3974
▁coast	-3975
▁combo	-3976
▁hence	-3977
▁intim	-3978
▁march	-3979
▁metal	-3980
▁nurse	-3981
▁panic	-3982
▁prost	-3983
▁woooo	-3984
itarian	-3985
▁absurd	-3986
▁bitter	-3987
▁bloody	-3988
▁circum	-3989
▁conven	-3990
▁europe	-3991
▁income	-3992
▁mascul	-3993
▁pocket	-3994
▁prayer	-3995
▁sunday	-3996
▁tongue	-3997
hahahaha	-3998
sequence	-3999
▁balance	-4000
▁century	-4001
▁climate	-4002
▁disease	-4003
▁england	-4004
▁fashion	-4005
▁leftist	-4006
▁motherf	-4007
▁passion	-4008
▁predict	-4009
▁promote	-4010
▁sarcasm	-4011
▁stomach	-4012
▁weather	-4013
▁humanity	-4014
▁mentally	-4015
▁sandwich	-4016
▁teenager	-4017
▁introduce	-4018
▁sacrifice	-4019
▁capitalist	-4020
▁comparison	-4021
▁compliment	-4022
▁ironically	-4023
▁university	-4024
▁consequence	-4025
▁expectation	-4026
py	-4027
ado	-4028
agn	-4029
bot	-4030
dly	-4031
eem	-4032
itz	-4033
kee	-4034
lla	-4035
mmy	-4036
nes	-4037
reh	-4038
▁ig	-4039
▁nu	-4040
▁pa	-4041
eeze	-4042
hold	-4043
ingy	-4044
itor	-4045
nite	-4046
otel	-4047
raft	-4048
rict	-4049
rome	-4050
sert	-4051
sing	-4052
sole	-4053
well	-4054
▁beg	-4055
▁bub	-4056
▁bum	-4057
▁bun	-4058
▁gop	-4059
▁hah	-4060
▁nyc	-4061
▁pig	-4062
▁veh	-4063
▁vom	-4064
ipper	-4065
itute	-4066
matic	-4067
▁bias	-4068
▁boob	-4069
▁boom	-4070
▁coun	-4071
▁debt	-4072
▁diet	-4073
▁elim	-4074
▁flex	-4075
▁goat	-4076
▁inch	-4077
▁jeez	-4078
▁melt	-4079
▁peak	-4080
▁poke	-4081
▁sink	-4082
▁skip	-4083
▁susp	-4084
▁tone	-4085
▁wire	-4086
▁yard	-4087
change	-4088
stance	-4089
▁adopt	-4090
▁amend	-4091
▁arrow	-4092
▁beach	-4093
▁beard	-4094
▁blast	-4095
▁coinc	-4096
▁cycle	-4097
▁detro	-4098
▁gamer	-4099
▁kitch	-4100
▁label	-4101
▁occur	-4102
▁plane	-4103
▁snake	-4104
▁sneak	-4105
▁steam	-4106
▁tight	-4107
▁usual	-4108
▁whose	-4109
mission	-4110
ruction	-4111
umption	-4112
▁addict	-4113
▁bridge	-4114
▁dragon	-4115
▁gotcha	-4116
▁muscle	-4117
▁myster	-4118
▁scient	-4119
▁script	-4120
▁unique	-4121
▁united	-4122
uuuuuuuu	-4123
▁advance	-4124
▁cakeday	-4125
▁calorie	-4126
▁chuckle	-4127
▁console	-4128
▁express	-4129
▁germany	-4130
▁horrify	-4131
▁license	-4132
▁luckily	-4133
▁millenn	-4134
▁nowhere	-4135
▁protest	-4136
▁section	-4137
▁shocked	-4138
▁vehicle	-4139
▁horribly	-4140
▁insecure	-4141
▁minority	-4142
▁misunder	-4143
▁movement	-4144
▁opponent	-4145
▁platform	-4146
▁redditor	-4147
▁ultimate	-4148
▁addiction	-4149
▁criticism	-4150
▁immigrant	-4151
▁incorrect	-4152
▁sarcastic	-4153
▁aggressive	-4154
▁legitimate	-4155
▁surprising	-4156
▁underrated	-4157
▁documentary	-4158
▁understanding	-4159
oooooooooooooooo	-4160
bl	-4161
vs	-4162
aco	-4163
chy	-4164
ene	-4165
iat	-4166
vit	-4167
wor	-4168
▁dc	-4169
▁gg	-4170
▁pt	-4171
brow	-4172
▁aaa	-4173
▁aha	-4174
▁boi	-4175
▁dar	-4176
▁dyn	-4177
▁fbi	-4178
▁fox	-4179
▁fyi	-4180
▁hop	-4181
▁irl	-4182
▁jam	-4183
▁ket	-4184
▁org	-4185
▁saf	-4186
▁wet	-4187
▁wis	-4188
allow	-4189
arden	-4190
ensor	-4191
iocre	-4192
venge	-4193
▁aunt	-4194
▁boil	-4195
▁bron	-4196
▁cann	-4197
▁cell	-4198
▁cunt	-4199
▁loan	-4200
▁maga	-4201
▁magn	-4202
▁pane	-4203
▁phil	-4204
▁proc	-4205
▁sigh	-4206
▁sooo	-4207
▁spit	-4208
▁tail	-4209
▁tape	-4210
▁twin	-4211
▁utah	-4212
▁woah	-4213
donald	-4214
▁clock	-4215
▁craft	-4216
▁diagn	-4217
▁elite	-4218
▁guide	-4219
▁influ	-4220
▁nerve	-4221
▁obliv	-4222
▁paint	-4223
▁shout	-4224
▁stink	-4225
▁sugar	-4226
▁swing	-4227
▁toler	-4228
▁trend	-4229
▁vomit	-4230
▁whine	-4231
anchise	-4232
duction	-4233
inating	-4234
itution	-4235
▁betray	-4236
▁bright	-4237
▁broken	-4238
▁censor	-4239
▁combat	-4240
▁crisis	-4241
▁desire	-4242
▁factor	-4243
▁irrele	-4244
▁mexico	-4245
▁praise	-4246
▁roster	-4247
▁silver	-4248
▁turkey	-4249
▁useful	-4250
entially	-4251
mination	-4252
▁analogy	-4253
▁atheist	-4254
▁bitcoin	-4255
▁combine	-4256
▁compreh	-4257
▁contain	-4258
▁corrupt	-4259
▁detroit	-4260
▁evening	-4261
▁eyebrow	-4262
▁grandma	-4263
▁illness	-4264
▁kitchen	-4265
▁starter	-4266
▁trailer	-4267
▁vaccine	-4268
▁writing	-4269
▁approach	-4270
▁dictator	-4271
▁economic	-4272
▁everyday	-4273
▁fortnite	-4274
▁homeless	-4275
▁identity	-4276
▁mediocre	-4277
▁previous	-4278
▁resource	-4279
▁romantic	-4280
▁childhood	-4281
▁depressed	-4282
▁sensitive	-4283
▁politician	-4284
▁competition	-4285
▁embarrassed	-4286
▁disappointment	-4287
hl	-4288
lc	-4289
sd	-4290
wl	-4291
yr	-4292
box	-4293
dra	-4294
eee	-4295
eer	-4296
lee	-4297
old	-4298
ona	-4299
uls	-4300
▁hm	-4301
▁mi	-4302
▁mm	-4303
▁mt	-4304
▁ns	-4305
▁os	-4306
ging	-4307
head	-4308
loit	-4309
mate	-4310
rade	-4311
roid	-4312
sday	-4313
yyyy	-4314
▁ded	-4315
▁dip	-4316
▁dut	-4317
▁gag	-4318
▁jet	-4319
▁pac	-4320
▁via	-4321
attoo	-4322
iance	-4323
inary	-4324
osure	-4325
quest	-4326
uable	-4327
▁alle	-4328
▁auto	-4329
▁bust	-4330
▁chap	-4331
▁cure	-4332
▁edgy	-4333
▁farm	-4334
▁fart	-4335
▁file	-4336
▁hmmm	-4337
▁kore	-4338
▁lion	-4339
▁mech	-4340
▁mile	-4341
▁mond	-4342
▁nerd	-4343
▁pale	-4344
▁plug	-4345
▁poop	-4346
▁shar	-4347
▁thin	-4348
▁walm	-4349
▁whoa	-4350
▁york	-4351
ablish	-4352
atable	-4353
ereoty	-4354
rative	-4355
▁actor	-4356
▁clown	-4357
▁concl	-4358
▁crypt	-4359
▁dread	-4360
▁flesh	-4361
▁frequ	-4362
▁gramm	-4363
▁grind	-4364
▁hotel	-4365
▁intol	-4366
▁naive	-4367
▁prior	-4368
▁snack	-4369
▁wheel	-4370
▁appeal	-4371
▁arrive	-4372
▁autism	-4373
▁badass	-4374
▁cookie	-4375
▁defeat	-4376
▁flower	-4377
▁freeze	-4378
▁gentle	-4379
▁hatred	-4380
▁incomp	-4381
▁native	-4382
▁pillow	-4383
▁poison	-4384
▁potato	-4385
▁purple	-4386
▁remote	-4387
▁resist	-4388
▁slowly	-4389
▁stance	-4390
▁streak	-4391
▁tattoo	-4392
▁tinder	-4393
▁uniron	-4394
▁volume	-4395
▁winner	-4396
ironment	-4397
lication	-4398
ological	-4399
▁anytime	-4400
▁comrade	-4401
▁connect	-4402
▁contrad	-4403
▁equally	-4404
▁exploit	-4405
▁intense	-4406
▁mislead	-4407
▁mission	-4408
▁rewatch	-4409
▁station	-4410
▁underwe	-4411
▁walmart	-4412
▁advocate	-4413
▁canadian	-4414
▁comeback	-4415
▁powerful	-4416
▁rational	-4417
▁stereoty	-4418
▁training	-4419
▁apartment	-4420
▁determine	-4421
▁effective	-4422
▁establish	-4423
▁franchise	-4424
▁offseason	-4425
▁pointless	-4426
▁sentiment	-4427
▁worthless	-4428
▁appearance	-4429
▁harassment	-4430
▁irrelevant	-4431
▁millennial	-4432
▁competitive	-4433
▁environment	-4434
▁fascinating	-4435
▁masculinity	-4436
▁progressive	-4437
▁significant	-4438
▁clarification	-4439
bc	-4440
va	-4441
vp	-4442
wk	-4443
bar	-4444
bye	-4445
for	-4446
het	-4447
ige	-4448
olt	-4449
rog	-4450
rot	-4451
sue	-4452
▁az	-4453
▁mp	-4454
▁nc	-4455
anic	-4456
bowl	-4457
edly	-4458
ingo	-4459
ogue	-4460
otic	-4461
resh	-4462
star	-4463
uter	-4464
vere	-4465
wash	-4466
▁alp	-4467
▁awh	-4468
▁ber	-4469
▁cro	-4470
▁oop	-4471
▁sam	-4472
▁sib	-4473
▁syn	-4474
▁umm	-4475
▁wik	-4476
andon	-4477
edule	-4478
flake	-4479
icorn	-4480
inese	-4481
ipate	-4482
itate	-4483
ooooo	-4484
point	-4485
rific	-4486
round	-4487
urday	-4488
▁bait	-4489
▁bean	-4490
▁brow	-4491
▁clot	-4492
▁cock	-4493
▁corn	-4494
▁dash	-4495
▁lame	-4496
▁mask	-4497
▁mood	-4498
▁neat	-4499
▁pool	-4500
▁puck	-4501
▁stan	-4502
▁synd	-4503
▁tort	-4504
▁turd	-4505
▁vill	-4506
▁welp	-4507
▁wolf	-4508
herent	-4509
minate	-4510
roller	-4511
▁binge	-4512
▁breed	-4513
▁crash	-4514
▁devil	-4515
▁dozen	-4516
▁empty	-4517
▁hella	-4518
▁hobby	-4519
▁imper	-4520
▁japan	-4521
▁kitty	-4522
▁laker	-4523
▁noise	-4524
▁panel	-4525
▁pasta	-4526
▁shade	-4527
▁squad	-4528
▁stack	-4529
▁veget	-4530
▁whoop	-4531
ivalent	-4532
▁acknow	-4533
▁amazed	-4534
▁bubble	-4535
▁budget	-4536
▁condom	-4537
▁disney	-4538
▁engine	-4539
▁histor	-4540
▁monday	-4541
▁monkey	-4542
▁outfit	-4543
▁rarely	-4544
▁remark	-4545
▁specie	-4546
▁starve	-4547
▁strate	-4548
▁suburb	-4549
▁wealth	-4550
▁weirdo	-4551
▁abandon	-4552
▁achieve	-4553
▁chinese	-4554
▁collect	-4555
▁consume	-4556
▁deliver	-4557
▁empathy	-4558
▁fascism	-4559
▁goodbye	-4560
▁heavily	-4561
▁mindset	-4562
▁reading	-4563
▁request	-4564
▁revenge	-4565
▁violate	-4566
▁warning	-4567
▁witness	-4568
▁worship	-4569
▁activity	-4570
▁congress	-4571
▁constant	-4572
▁delusion	-4573
▁distract	-4574
▁exchange	-4575
▁exciting	-4576
▁function	-4577
▁industry	-4578
▁maintain	-4579
▁overrate	-4580
▁particul	-4581
▁recovery	-4582
▁schedule	-4583
▁shooting	-4584
▁shutdown	-4585
▁valuable	-4586
▁complaint	-4587
▁confident	-4588
▁confusion	-4589
▁criticize	-4590
▁exclusive	-4591
▁miserable	-4592
▁therefore	-4593
▁translate	-4594
▁conclusion	-4595
▁contradict	-4596
▁acknowledge	-4597
▁coincidence	-4598
▁neighborhood	-4599
▁unironically	-4600
▁recommendation	-4601
ij	-4602
sb	-4603
vo	-4604
ban	-4605
cil	-4606
esc	-4607
ley	-4608
sel	-4609
vot	-4610
▁cy	-4611
▁ec	-4612
▁ik	-4613
▁lu	-4614
agle	-4615
core	-4616
ffle	-4617
hand	-4618
lant	-4619
race	-4620
rain	-4621
walk	-4622
whel	-4623
▁adj	-4624
▁cha	-4625
▁ego	-4626
▁fab	-4627
▁gal	-4628
▁gut	-4629
▁hul	-4630
▁ish	-4631
▁lap	-4632
▁lib	-4633
▁lil	-4634
▁noo	-4635
▁poo	-4636
▁rif	-4637
▁sup	-4638
agger	-4639
ddler	-4640
etime	-4641
grade	-4642
istry	-4643
orker	-4644
stern	-4645
style	-4646
umble	-4647
▁arch	-4648
▁bout	-4649
▁choc	-4650
▁dece	-4651
▁dunk	-4652
▁ital	-4653
▁kidn	-4654
▁lift	-4655
▁logo	-4656
▁math	-4657
▁meta	-4658
▁nove	-4659
▁nsfw	-4660
▁nuts	-4661
▁pist	-4662
▁pron	-4663
▁quad	-4664
▁rely	-4665
▁sout	-4666
▁stab	-4667
▁syri	-4668
▁thus	-4669
▁toss	-4670
▁tune	-4671
▁unne	-4672
istent	-4673
sexual	-4674
urally	-4675
▁admin	-4676
▁armor	-4677
▁audio	-4678
▁belly	-4679
▁bible	-4680
▁bonus	-4681
▁bored	-4682
▁chase	-4683
▁chest	-4684
▁delay	-4685
▁depth	-4686
▁emerg	-4687
▁grant	-4688
▁input	-4689
▁leafs	-4690
▁oddly	-4691
▁penal	-4692
▁print	-4693
▁shark	-4694
▁shite	-4695
▁shove	-4696
▁sight	-4697
▁storm	-4698
▁vague	-4699
▁wound	-4700
▁aspect	-4701
▁awhile	-4702
▁clever	-4703
▁colour	-4704
▁commie	-4705
▁cringy	-4706
▁define	-4707
▁depart	-4708
▁easter	-4709
▁inevit	-4710
▁method	-4711
▁misogy	-4712
▁pepper	-4713
▁upload	-4714
▁volunt	-4715
▁writer	-4716
▁approve	-4717
▁central	-4718
▁convert	-4719
▁enforce	-4720
▁forgive	-4721
▁intoler	-4722
▁journey	-4723
▁legally	-4724
▁miracle	-4725
▁officer	-4726
▁outcome	-4727
▁payment	-4728
▁recover	-4729
▁refresh	-4730
▁scratch	-4731
▁seattle	-4732
▁shooter	-4733
▁sibling	-4734
▁souther	-4735
▁spanish	-4736
▁spoiler	-4737
▁succeed	-4738
▁toddler	-4739
▁unicorn	-4740
▁utterly	-4741
▁withdra	-4742
▁addition	-4743
▁baseball	-4744
▁coworker	-4745
▁creative	-4746
▁delivery	-4747
▁ideology	-4748
▁kindness	-4749
▁register	-4750
▁saturday	-4751
▁surround	-4752
▁unnecess	-4753
▁vacation	-4754
▁awareness	-4755
▁chocolate	-4756
▁emergency	-4757
▁influence	-4758
▁marketing	-4759
▁ourselves	-4760
▁snowflake	-4761
▁statistic	-4762
▁controller	-4763
▁convenient	-4764
▁democratic	-4765
▁journalist	-4766
▁protection	-4767
▁punishment	-4768
▁revolution	-4769
▁supportive	-4770
▁appropriate	-4771
▁emotionally	-4772
▁independent	-4773
▁necessarily	-4774
▁circumstance	-4775
▁legitimately	-4776
▁particularly	-4777
▁unbelievable	-4778
▁international	-4779
▁investigation	-4780
hn	-4781
ih	-4782
of	-4783
ara	-4784
ays	-4785
bal	-4786
cap	-4787
cue	-4788
erk	-4789
gic	-4790
gun	-4791
ito	-4792
nic	-4793
rid	-4794
rie	-4795
she	-4796
sin	-4797
tfy	-4798
tor	-4799
val	-4800
war	-4801
▁cb	-4802
▁ds	-4803
▁ja	-4804
▁ww	-4805
aken	-4806
ased	-4807
corn	-4808
ford	-4809
iled	-4810
mple	-4811
olar	-4812
oner	-4813
oral	-4814
pret	-4815
rast	-4816
stic	-4817
zuel	-4818
▁adm	-4819
▁amb	-4820
▁ank	-4821
▁gem	-4822
▁gro	-4823
▁ing	-4824
▁mig	-4825
▁nhl	-4826
▁obe	-4827
▁ont	-4828
▁owe	-4829
▁pie	-4830
▁raw	-4831
▁sla	-4832
▁thx	-4833
▁vax	-4834
▁ven	-4835
▁wig	-4836
▁yeh	-4837
chool	-4838
ified	-4839
iforn	-4840
ilege	-4841
iling	-4842
mptom	-4843
stick	-4844
while	-4845
▁ange	-4846
▁asso	-4847
▁belt	-4848
▁beta	-4849
▁capt	-4850
▁colt	-4851
▁core	-4852
▁crew	-4853
▁crop	-4854
▁diss	-4855
▁flop	-4856
▁ftfy	-4857
▁icon	-4858
▁john	-4859
▁junk	-4860
▁mast	-4861
▁ouch	-4862
▁perp	-4863
▁pipe	-4864
▁reck	-4865
▁sack	-4866
▁slip	-4867
▁smug	-4868
▁taco	-4869
▁trop	-4870
▁tube	-4871
▁unit	-4872
▁wave	-4873
▁whip	-4874
employ	-4875
iation	-4876
lement	-4877
ograph	-4878
ounter	-4879
▁basis	-4880
▁bound	-4881
▁chair	-4882
▁crown	-4883
▁donut	-4884
▁fella	-4885
▁forum	-4886
▁guilt	-4887
▁horny	-4888
▁hyper	-4889
▁ideal	-4890
▁irrit	-4891
▁juice	-4892
▁juicy	-4893
▁medic	-4894
▁misin	-4895
▁mommy	-4896
▁pride	-4897
▁rifle	-4898
▁robot	-4899
▁soooo	-4900
▁stalk	-4901
▁toast	-4902
▁uncon	-4903
▁unite	-4904
▁voter	-4905
ception	-4906
ifornia	-4907
▁affair	-4908
▁attach	-4909
▁backup	-4910
▁barrel	-4911
▁cuddle	-4912
▁damnit	-4913
▁device	-4914
▁discri	-4915
▁dodger	-4916
▁format	-4917
▁gaming	-4918
▁height	-4919
▁indian	-4920
▁intend	-4921
▁knight	-4922
▁pedoph	-4923
▁recall	-4924
▁relief	-4925
▁safety	-4926
▁salary	-4927
▁smooth	-4928
▁spring	-4929
▁square	-4930
▁temper	-4931
▁territ	-4932
▁unreal	-4933
▁blatant	-4934
▁brigade	-4935
▁charity	-4936
▁complic	-4937
▁explode	-4938
▁generic	-4939
▁grammar	-4940
▁instant	-4941
▁january	-4942
▁logical	-4943
▁ontario	-4944
▁opening	-4945
▁package	-4946
▁popcorn	-4947
▁symptom	-4948
▁washing	-4949
▁western	-4950
▁actively	-4951
▁clothing	-4952
▁critical	-4953
▁dramatic	-4954
▁hardcore	-4955
▁instinct	-4956
▁moderate	-4957
▁november	-4958
▁paranoid	-4959
▁remotely	-4960
▁scotland	-4961
▁socially	-4962
▁southern	-4963
▁spelling	-4964
▁syndrome	-4965
▁talented	-4966
▁timeline	-4967
▁unemploy	-4968
▁anarchist	-4969
▁correctly	-4970
▁efficient	-4971
▁elsewhere	-4972
▁exception	-4973
▁existence	-4974
▁narrative	-4975
▁obsession	-4976
▁terrorist	-4977
▁vaccinate	-4978
▁assumption	-4979
▁california	-4980
▁connection	-4981
▁equivalent	-4982
▁homophobic	-4983
▁stereotype	-4984
▁successful	-4985
▁communicate	-4986
▁intelligent	-4987
▁intelligence	-4988
▁authoritarian	-4989
▁communication	-4990
▁embarrassment	-4991
▁significantly	-4992
ef	-4993
vy	-4994
bow	-4995
dia	-4996
eme	-4997
hem	-4998
nat	-4999
new	-5000
nox	-5001
omy	-5002
ped	-5003
rum	-5004
sen	-5005
the	-5006
tte	-5007
ula	-5008
zer	-5009
▁cc	-5010
▁hr	-5011
▁ka	-5012
▁np	-5013
▁rb	-5014
▁sj	-5015
ancy	-5016
feed	-5017
fish	-5018
igan	-5019
logy	-5020
orse	-5021
stop	-5022
stri	-5023
ubby	-5024
ucky	-5025
ware	-5026
▁aid	-5027
▁arc	-5028
▁bio	-5029
▁bip	-5030
▁bow	-5031
▁cod	-5032
▁dan	-5033
▁dlc	-5034
▁gim	-5035
▁lif	-5036
▁lin	-5037
▁lou	-5038
▁luc	-5039
▁maf	-5040
▁mas	-5041
▁nep	-5042
▁pap	-5043
▁phy	-5044
▁ppl	-5045
▁ree	-5046
▁rud	-5047
▁sha	-5048
▁spa	-5049
▁sto	-5050
▁yah	-5051
about	-5052
adays	-5053
adium	-5054
craft	-5055
ldier	-5056
ocide	-5057
ombie	-5058
ondon	-5059
oodle	-5060
osaur	-5061
power	-5062
rough	-5063
▁arse	-5064
▁aust	-5065
▁bash	-5066
▁best	-5067
▁blan	-5068
▁chef	-5069
▁coin	-5070
▁coke	-5071
▁dent	-5072
▁dete	-5073
▁diab	-5074
▁exam	-5075
▁firm	-5076
▁gear	-5077
▁glob	-5078
▁glue	-5079
▁grey	-5080
▁hood	-5081
▁hous	-5082
▁kink	-5083
▁lake	-5084
▁mand	-5085
▁mart	-5086
▁mavs	-5087
▁menu	-5088
▁oops	-5089
▁refe	-5090
▁rice	-5091
▁slam	-5092
▁sock	-5093
▁stee	-5094
▁stru	-5095
▁swim	-5096
▁symp	-5097
▁tack	-5098
▁thro	-5099
▁thru	-5100
▁vene	-5101
▁virt	-5102
▁whis	-5103
▁wipe	-5104
▁wrap	-5105
acture	-5106
nament	-5107
oooooo	-5108
romise	-5109
spaper	-5110
uriate	-5111
ussion	-5112
▁alien	-5113
▁amuse	-5114
▁award	-5115
▁bacon	-5116
▁booze	-5117
▁chart	-5118
▁doggo	-5119
▁dynam	-5120
▁eagle	-5121
▁fancy	-5122
▁glove	-5123
▁india	-5124
▁liver	-5125
▁memor	-5126
▁morty	-5127
▁obnox	-5128
▁parag	-5129
▁patri	-5130
▁puppy	-5131
▁purch	-5132
▁resol	-5133
▁royal	-5134
▁slave	-5135
▁slide	-5136
▁spect	-5137
▁spoil	-5138
▁stare	-5139
▁thick	-5140
▁unatt	-5141
▁unsub	-5142
▁whore	-5143
ologist	-5144
oration	-5145
ractive	-5146
▁assass	-5147
▁bounce	-5148
▁county	-5149
▁cowboy	-5150
▁excite	-5151
▁giggle	-5152
▁grandm	-5153
▁humble	-5154
▁infect	-5155
▁integr	-5156
▁labour	-5157
▁london	-5158
▁lookin	-5159
▁mature	-5160
▁minnes	-5161
▁rating	-5162
▁rocket	-5163
▁shadow	-5164
▁skinny	-5165
▁status	-5166
▁submit	-5167
▁zombie	-5168
▁captain	-5169
▁compete	-5170
▁haircut	-5171
▁happily	-5172
▁housing	-5173
▁initial	-5174
▁misread	-5175
▁narciss	-5176
▁panther	-5177
▁penalty	-5178
▁qualify	-5179
▁related	-5180
▁satisfy	-5181
▁slavery	-5182
▁soldier	-5183
▁stadium	-5184
▁torture	-5185
▁various	-5186
▁computer	-5187
▁creature	-5188
▁defender	-5189
▁diagnose	-5190
▁graduate	-5191
▁nowadays	-5192
▁overwhel	-5193
▁painting	-5194
▁sexually	-5195
▁stunning	-5196
▁underest	-5197
▁unlikely	-5198
▁venezuel	-5199
▁withdraw	-5200
▁backwards	-5201
▁brainwash	-5202
▁encounter	-5203
▁flashback	-5204
▁newspaper	-5205
▁obnoxious	-5206
▁realistic	-5207
▁superbowl	-5208
▁controvers	-5209
▁correction	-5210
▁department	-5211
▁depressing	-5212
▁management	-5213
▁optimistic	-5214
▁previously	-5215
▁thankfully	-5216
▁correlation	-5217
▁description	-5218
▁immigration	-5219
▁translation	-5220
▁consistently	-5221
▁unattractive	-5222
▁underestimate	-5223
gs	-5224
ja	-5225
jo	-5226
yl	-5227
acc	-5228
ada	-5229
aud	-5230
fty	-5231
hab	-5232
iac	-5233
owa	-5234
riz	-5235
sty	-5236
▁ga	-5237
▁gd	-5238
▁lg	-5239
▁ly	-5240
▁ox	-5241
▁sb	-5242
▁sf	-5243
away	-5244
bour	-5245
cing	-5246
ette	-5247
fire	-5248
iour	-5249
mont	-5250
onto	-5251
pool	-5252
rier	-5253
rrrr	-5254
utch	-5255
wood	-5256
zzle	-5257
▁bin	-5258
▁cig	-5259
▁dub	-5260
▁emo	-5261
▁era	-5262
▁fif	-5263
▁gee	-5264
▁gov	-5265
▁hel	-5266
▁mam	-5267
▁nic	-5268
▁nug	-5269
▁pew	-5270
▁pis	-5271
▁pow	-5272
▁sjw	-5273
▁sum	-5274
▁toe	-5275
▁tom	-5276
▁unh	-5277
▁voc	-5278
▁yan	-5279
aking	-5280
angle	-5281
aphor	-5282
ceive	-5283
happy	-5284
house	-5285
ourse	-5286
thern	-5287
using	-5288
verty	-5289
▁appl	-5290
▁ariz	-5291
▁carb	-5292
▁cate	-5293
▁chin	-5294
▁coal	-5295
▁dose	-5296
▁dust	-5297
▁duty	-5298
▁frag	-5299
▁geez	-5300
▁gosh	-5301
▁hint	-5302
▁hulu	-5303
▁iowa	-5304
▁mail	-5305
▁moon	-5306
▁outl	-5307
▁peep	-5308
▁ping	-5309
▁pose	-5310
▁seal	-5311
▁semi	-5312
▁task	-5313
▁tick	-5314
▁vice	-5315
▁vile	-5316
escend	-5317
isible	-5318
lessly	-5319
parent	-5320
stream	-5321
ularly	-5322
worthy	-5323
▁ahhhh	-5324
▁angle	-5325
▁ankle	-5326
▁blade	-5327
▁chunk	-5328
▁cloud	-5329
▁drown	-5330
▁forth	-5331
▁grave	-5332
▁haunt	-5333
▁hmmmm	-5334
▁homie	-5335
▁mafia	-5336
▁prick	-5337
▁prize	-5338
▁rival	-5339
▁river	-5340
▁route	-5341
▁scale	-5342
▁shall	-5343
▁sharp	-5344
▁sheep	-5345
▁shill	-5346
▁spark	-5347
aborate	-5348
itation	-5349
itional	-5350
▁adjust	-5351
▁agency	-5352
▁attend	-5353
▁austin	-5354
▁breast	-5355
▁bumper	-5356
▁burden	-5357
▁empire	-5358
▁ethnic	-5359
▁filthy	-5360
▁flavor	-5361
▁garden	-5362
▁growth	-5363
▁hyster	-5364
▁imagin	-5365
▁insert	-5366
▁margin	-5367
▁packer	-5368
▁philos	-5369
▁physic	-5370
▁piston	-5371
▁pursue	-5372
▁rabbit	-5373
▁retail	-5374
▁satisf	-5375
▁scheme	-5376
▁sequel	-5377
▁shield	-5378
▁spouse	-5379
▁sweaty	-5380
▁twitch	-5381
▁unfair	-5382
▁vagina	-5383
▁wallet	-5384
atically	-5385
▁airport	-5386
▁arizona	-5387
▁blanket	-5388
▁ceiling	-5389
▁decline	-5390
▁despise	-5391
▁eastern	-5392
▁further	-5393
▁graphic	-5394
▁honesty	-5395
▁italian	-5396
▁passive	-5397
▁possess	-5398
▁poverty	-5399
▁reflect	-5400
▁reposte	-5401
▁sadness	-5402
▁statist	-5403
▁steeler	-5404
▁toronto	-5405
▁victory	-5406
▁wealthy	-5407
▁audience	-5408
▁boundary	-5409
▁clueless	-5410
▁collapse	-5411
▁confront	-5412
▁december	-5413
▁director	-5414
▁genocide	-5415
▁immature	-5416
▁incompet	-5417
▁lifetime	-5418
▁mcdonald	-5419
▁metaphor	-5420
▁prospect	-5421
▁purchase	-5422
▁receiver	-5423
▁strategy	-5424
▁teammate	-5425
▁thankful	-5426
▁transfer	-5427
▁advertise	-5428
▁amazingly	-5429
▁associate	-5430
▁behaviour	-5431
▁conscious	-5432
▁construct	-5433
▁eliminate	-5434
▁evolution	-5435
▁invisible	-5436
▁legendary	-5437
▁lifestyle	-5438
▁naturally	-5439
▁privilege	-5440
▁regularly	-5441
▁relatable	-5442
▁typically	-5443
▁afterwards	-5444
▁condescend	-5445
▁friendship	-5446
▁impression	-5447
▁relatively	-5448
▁republican	-5449
▁retirement	-5450
▁tournament	-5451
▁combination	-5452
▁desperately	-5453
▁differently	-5454
▁interaction	-5455
▁ridiculously	-5456
ok	-5457
sk	-5458
ami	-5459
arr	-5460
aus	-5461
bra	-5462
ecd	-5463
eth	-5464
ffe	-5465
gen	-5466
gia	-5467
hum	-5468
ila	-5469
isy	-5470
nov	-5471
oen	-5472
oia	-5473
oli	-5474
ott	-5475
pel	-5476
sea	-5477
see	-5478
sis	-5479
vey	-5480
yyy	-5481
▁ak	-5482
▁fb	-5483
▁fc	-5484
▁gb	-5485
▁md	-5486
▁ms	-5487
▁nj	-5488
▁pi	-5489
▁py	-5490
▁yr	-5491
▁ze	-5492
aman	-5493
base	-5494
cean	-5495
eous	-5496
iday	-5497
ilot	-5498
lder	-5499
mmer	-5500
onde	-5501
onym	-5502
osis	-5503
rial	-5504
shop	-5505
stal	-5506
ucle	-5507
zard	-5508
▁atm	-5509
▁bam	-5510
▁btc	-5511
▁bul	-5512
▁cnn	-5513
▁dys	-5514
▁gob	-5515
▁jab	-5516
▁jun	-5517
▁len	-5518
▁mat	-5519
▁mel	-5520
▁nin	-5521
▁oct	-5522
▁ord	-5523
▁pup	-5524
▁rhy	-5525
▁sab	-5526
▁soo	-5527
▁tid	-5528
▁tun	-5529
▁vet	-5530
brary	-5531
eable	-5532
front	-5533
hobia	-5534
iable	-5535
orney	-5536
piece	-5537
ucker	-5538
▁bold	-5539
▁bolt	-5540
▁bond	-5541
▁braz	-5542
▁cage	-5543
▁cave	-5544
▁cine	-5545
▁decl	-5546
▁dial	-5547
▁enth	-5548
▁envy	-5549
▁exer	-5550
▁flee	-5551
▁flow	-5552
▁fork	-5553
▁hail	-5554
▁horm	-5555
▁horn	-5556
▁intp	-5557
▁jell	-5558
▁lawn	-5559
▁mama	-5560
▁mmmm	-5561
▁myth	-5562
▁nake	-5563
▁nude	-5564
▁oooo	-5565
▁pers	-5566
▁pier	-5567
▁ramp	-5568
▁rick	-5569
▁slur	-5570
▁thor	-5571
▁thur	-5572
▁typo	-5573
▁unin	-5574
▁ward	-5575
ateful	-5576
hahaha	-5577
ipping	-5578
ouncer	-5579
school	-5580
soever	-5581
ternal	-5582
▁acade	-5583
▁accus	-5584
▁anecd	-5585
▁bingo	-5586
▁brick	-5587
▁candy	-5588
▁cheek	-5589
▁crave	-5590
▁drain	-5591
▁emoji	-5592
▁float	-5593
▁fluid	-5594
▁found	-5595
▁grown	-5596
▁hahah	-5597
▁hoard	-5598
▁intri	-5599
▁knick	-5600
▁labor	-5601
▁layer	-5602
▁mercy	-5603
▁nucle	-5604
▁parli	-5605
▁shady	-5606
▁spray	-5607
▁tasty	-5608
▁thumb	-5609
▁times	-5610
▁tribe	-5611
▁unrel	-5612
▁upper	-5613
▁weigh	-5614
▁whale	-5615
▁witch	-5616
▁woosh	-5617
▁blonde	-5618
▁boston	-5619
▁branch	-5620
▁casual	-5621
▁clutch	-5622
▁crypto	-5623
▁damned	-5624
▁deeply	-5625
▁detect	-5626
▁divide	-5627
▁expand	-5628
▁friday	-5629
▁fright	-5630
▁frozen	-5631
▁global	-5632
▁infant	-5633
▁instal	-5634
▁invent	-5635
▁iphone	-5636
▁legion	-5637
▁marvel	-5638
▁mildly	-5639
▁perpet	-5640
▁philly	-5641
▁rapist	-5642
▁raptor	-5643
▁rescue	-5644
▁secure	-5645
▁select	-5646
▁selfie	-5647
▁settle	-5648
▁subtle	-5649
▁surviv	-5650
▁throat	-5651
▁trashy	-5652
▁turtle	-5653
▁viking	-5654
▁vision	-5655
▁voting	-5656
iliation	-5657
▁caption	-5658
▁capture	-5659
▁cartoon	-5660
▁commute	-5661
▁concent	-5662
▁confess	-5663
▁contest	-5664
▁deliber	-5665
▁demonst	-5666
▁drawing	-5667
▁embrace	-5668
▁explore	-5669
▁funding	-5670
▁grandpa	-5671
▁hunting	-5672
▁immoral	-5673
▁library	-5674
▁masturb	-5675
▁prequel	-5676
▁radical	-5677
▁routine	-5678
▁smoking	-5679
▁speaker	-5680
▁transit	-5681
▁trilogy	-5682
▁unlucky	-5683
▁visible	-5684
servation	-5685
▁attorney	-5686
▁autistic	-5687
▁centrist	-5688
▁disaster	-5689
▁division	-5690
▁donation	-5691
▁electric	-5692
▁exercise	-5693
▁feedback	-5694
▁headache	-5695
▁horrific	-5696
▁incident	-5697
▁inherent	-5698
▁interact	-5699
▁mistaken	-5700
▁northern	-5701
▁resident	-5702
▁amendment	-5703
▁chemistry	-5704
▁democrats	-5705
▁execution	-5706
▁hypocrite	-5707
▁infuriate	-5708
▁lightning	-5709
▁malicious	-5710
▁meanwhile	-5711
▁minnesota	-5712
▁objective	-5713
▁paragraph	-5714
▁pronounce	-5715
▁scientist	-5716
▁structure	-5717
▁territory	-5718
▁transport	-5719
▁treatment	-5720
▁underwear	-5721
▁venezuela	-5722
▁acceptable	-5723
▁accusation	-5724
▁additional	-5725
▁commitment	-5726
▁compromise	-5727
▁experiment	-5728
▁heartbreak	-5729
▁medication	-5730
▁officially	-5731
▁parliament	-5732
▁projection	-5733
▁prostitute	-5734
▁psychopath	-5735
▁subjective	-5736
▁washington	-5737
▁whatsoever	-5738
▁withdrawal	-5739
▁commentator	-5740
▁desperation	-5741
▁development	-5742
▁grandmother	-5743
▁grandparent	-5744
▁speculation	-5745
▁unnecessary	-5746
▁championship	-5747
▁occasionally	-5748
▁responsibility	-5749
gl	-5750
gu	-5751
iw	-5752
jj	-5753
la	-5754
uf	-5755
apt	-5756
bly	-5757
ced	-5758
cho	-5759
fly	-5760
gar	-5761
hea	-5762
hib	-5763
len	-5764
lph	-5765
mal	-5766
met	-5767
not	-5768
och	-5769
oll	-5770
rep	-5771
rol	-5772
str	-5773
udo	-5774
uma	-5775
ura	-5776
usi	-5777
wel	-5778
yes	-5779
you	-5780
zor	-5781
▁db	-5782
▁dd	-5783
▁et	-5784
▁fi	-5785
▁hc	-5786
▁mk	-5787
▁nv	-5788
▁pd	-5789
▁ss	-5790
athe	-5791
bute	-5792
cery	-5793
chup	-5794
cipe	-5795
ding	-5796
dney	-5797
duct	-5798
erer	-5799
fast	-5800
gage	-5801
hawk	-5802
hill	-5803
hobe	-5804
iger	-5805
ilia	-5806
long	-5807
rior	-5808
sion	-5809
town	-5810
ucke	-5811
▁axe	-5812
▁bpd	-5813
▁cru	-5814
▁cub	-5815
▁dmc	-5816
▁ffs	-5817
▁gap	-5818
▁gta	-5819
▁kat	-5820
▁lat	-5821
▁liv	-5822
▁lun	-5823
▁lur	-5824
▁mah	-5825
▁meg	-5826
▁mlm	-5827
▁mud	-5828
▁mvp	-5829
▁nag	-5830
▁num	-5831
▁ofc	-5832
▁owo	-5833
▁roo	-5834
▁rug	-5835
▁srs	-5836
▁tob	-5837
▁vul	-5838
▁web	-5839
aaaaa	-5840
achel	-5841
acket	-5842
andal	-5843
anity	-5844
archy	-5845
arity	-5846
berry	-5847
ening	-5848
gment	-5849
ifact	-5850
incip	-5851
ising	-5852
iture	-5853
keepe	-5854
licit	-5855
night	-5856
ooper	-5857
rical	-5858
ronic	-5859
state	-5860
stood	-5861
think	-5862
umbag	-5863
voted	-5864
▁acid	-5865
▁babe	-5866
▁blog	-5867
▁blur	-5868
▁brag	-5869
▁cham	-5870
▁cher	-5871
▁cuck	-5872
▁curb	-5873
▁deck	-5874
▁disl	-5875
▁dope	-5876
▁espn	-5877
▁exha	-5878
▁exit	-5879
▁flaw	-5880
▁furi	-5881
▁furn	-5882
▁hash	-5883
▁inex	-5884
▁liqu	-5885
▁mall	-5886
▁mint	-5887
▁nick	-5888
▁nuke	-5889
▁obsc	-5890
▁ohio	-5891
▁oooh	-5892
▁oper	-5893
▁pedo	-5894
▁rail	-5895
▁sket	-5896
▁slop	-5897
▁soda	-5898
▁sore	-5899
▁ster	-5900
▁swed	-5901
▁tale	-5902
▁thot	-5903
▁vest	-5904
▁visa	-5905
▁wack	-5906
▁whoo	-5907
▁xbox	-5908
father	-5909
ipedia	-5910
mitism	-5911
olence	-5912
regard	-5913
▁afric	-5914
▁align	-5915
▁alpha	-5916
▁amaze	-5917
▁analy	-5918
▁angel	-5919
▁asian	-5920
▁awake	-5921
▁bleed	-5922
▁burst	-5923
▁canon	-5924
▁categ	-5925
▁clone	-5926
▁cough	-5927
▁crust	-5928
▁eight	-5929
▁escal	-5930
▁flirt	-5931
▁goose	-5932
▁handy	-5933
▁harsh	-5934
▁legis	-5935
▁messy	-5936
▁mixed	-5937
▁motor	-5938
▁naked	-5939
▁nause	-5940
▁noooo	-5941
▁novel	-5942
▁ocean	-5943
▁onion	-5944
▁pilot	-5945
▁queue	-5946
▁razor	-5947
▁recon	-5948
▁rural	-5949
▁scoop	-5950
▁scrub	-5951
▁steel	-5952
▁stunt	-5953
▁sunny	-5954
▁swipe	-5955
▁syria	-5956
▁texte	-5957
▁theft	-5958
▁traum	-5959
▁uneth	-5960
ilation	-5961
ography	-5962
through	-5963
▁advent	-5964
▁browse	-5965
▁campus	-5966
▁client	-5967
▁closet	-5968
▁crappy	-5969
▁dealer	-5970
▁discon	-5971
▁expans	-5972
▁flight	-5973
▁forbid	-5974
▁greedy	-5975
▁incons	-5976
▁launch	-5977
▁lineup	-5978
▁metric	-5979
▁mutual	-5980
▁ohhhhh	-5981
▁openly	-5982
▁overly	-5983
▁overre	-5984
▁pantie	-5985
▁patter	-5986
▁pickle	-5987
▁pissed	-5988
▁preach	-5989
▁prosec	-5990
▁recipe	-5991
▁resign	-5992
▁retain	-5993
▁sample	-5994
▁savage	-5995
▁scamme	-5996
▁serial	-5997
▁severe	-5998
▁string	-5999
▁supply	-6000
▁sydney	-6001
▁toward	-6002
▁tragic	-6003
▁triple	-6004
▁trophy	-6005
▁unable	-6006
▁winger	-6007
▁asexual	-6008
▁balloon	-6009
▁bedroom	-6010
▁bigotry	-6011
▁bipolar	-6012
▁capable	-6013
▁closely	-6014
▁closure	-6015
▁complex	-6016
▁concert	-6017
▁cringey	-6018
▁deflect	-6019
▁desktop	-6020
▁economy	-6021
▁endless	-6022
▁endorse	-6023
▁enthusi	-6024
▁fiction	-6025
▁fragile	-6026
▁hateful	-6027
▁healing	-6028
▁ketchup	-6029
▁meeting	-6030
▁mystery	-6031
▁network	-6032
▁nuclear	-6033
▁operate	-6034
▁patriot	-6035
▁princip	-6036
▁relieve	-6037
▁scumbag	-6038
▁shotgun	-6039
▁theater	-6040
▁tribute	-6041
▁unhappy	-6042
▁upgrade	-6043
▁weirdly	-6044
▁woooosh	-6045
istration	-6046
▁activist	-6047
▁artifact	-6048
▁assassin	-6049
▁buzzfeed	-6050
▁childish	-6051
▁dinosaur	-6052
▁district	-6053
▁engineer	-6054
▁equality	-6055
▁fighting	-6056
▁indicate	-6057
▁landlord	-6058
▁nominate	-6059
▁oblivion	-6060
▁outright	-6061
▁paranoia	-6062
▁philosop	-6063
▁predator	-6064
▁psychiat	-6065
▁publicly	-6066
▁rotation	-6067
▁sensible	-6068
▁shocking	-6069
▁survivor	-6070
▁thursday	-6071
▁turnover	-6072
▁animation	-6073
▁announcer	-6074
▁disregard	-6075
▁elaborate	-6076
▁gatekeepe	-6077
▁hypocrisy	-6078
▁interpret	-6079
▁judgement	-6080
▁minecraft	-6081
▁righteous	-6082
▁sexuality	-6083
▁sincerely	-6084
▁unethical	-6085
▁unrelated	-6086
▁violation	-6087
▁wikipedia	-6088
▁borderline	-6089
▁collection	-6090
▁concussion	-6091
▁condolence	-6092
▁expression	-6093
▁inevitable	-6094
▁insecurity	-6095
▁intolerant	-6096
▁mainstream	-6097
▁percentage	-6098
▁production	-6099
▁supposedly	-6100
▁transition	-6101
▁corporation	-6102
▁destruction	-6103
▁financially	-6104
▁improvement	-6105
▁informative	-6106
▁millionaire	-6107
▁replacement	-6108
▁temperature	-6109
▁entertaining	-6110
▁questionable	-6111
▁misunderstand	-6112
▁discrimination	-6113
▁understandable	-6114
af	-6115
fu	-6116
gi	-6117
pg	-6118
wa	-6119
xm	-6120
zo	-6121
cou	-6122
die	-6123
eas	-6124
ess	-6125
ett	-6126
fic	-6127
gas	-6128
hat	-6129
hew	-6130
ifu	-6131
pay	-6132
rab	-6133
roc	-6134
shi	-6135
sss	-6136
▁ai	-6137
▁cp	-6138
▁cw	-6139
▁df	-6140
▁dj	-6141
▁dy	-6142
▁ff	-6143
▁lb	-6144
▁ni	-6145
▁tm	-6146
▁vr	-6147
achu	-6148
amin	-6149
anny	-6150
anut	-6151
asse	-6152
cake	-6153
cede	-6154
chat	-6155
face	-6156
food	-6157
gate	-6158
hase	-6159
ianc	-6160
ibal	-6161
inal	-6162
ingu	-6163
itar	-6164
itut	-6165
keep	-6166
laim	-6167
lift	-6168
lsea	-6169
ltic	-6170
mble	-6171
mind	-6172
mond	-6173
nect	-6174
olic	-6175
ovel	-6176
quar	-6177
roke	-6178
seum	-6179
sity	-6180
viet	-6181
▁ace	-6182
▁fid	-6183
▁fps	-6184
▁hay	-6185
▁heh	-6186
▁hid	-6187
▁itt	-6188
▁jaw	-6189
▁jok	-6190
▁las	-6191
▁laz	-6192
▁loo	-6193
▁lpt	-6194
▁mls	-6195
▁mos	-6196
▁ohh	-6197
▁okc	-6198
▁shr	-6199
▁shy	-6200
▁tab	-6201
▁tbf	-6202
▁unw	-6203
▁vod	-6204
▁wat	-6205
▁wwe	-6206
abama	-6207
ailed	-6208
anese	-6209
asize	-6210
dance	-6211
lando	-6212
least	-6213
llect	-6214
oenix	-6215
orial	-6216
otion	-6217
raine	-6218
senal	-6219
uster	-6220
▁amen	-6221
▁amir	-6222
▁ammo	-6223
▁anth	-6224
▁asia	-6225
▁bama	-6226
▁bant	-6227
▁bart	-6228
▁bour	-6229
▁bros	-6230
▁cali	-6231
▁caut	-6232
▁coat	-6233
▁fare	-6234
▁fate	-6235
▁fuel	-6236
▁funn	-6237
▁geor	-6238
▁gest	-6239
▁gill	-6240
▁glow	-6241
▁indo	-6242
▁intj	-6243
▁jean	-6244
▁mich	-6245
▁murd	-6246
▁nerf	-6247
▁neut	-6248
▁peer	-6249
▁perk	-6250
▁pile	-6251
▁pity	-6252
▁pork	-6253
▁rack	-6254
▁rend	-6255
▁rope	-6256
▁scor	-6257
▁subt	-6258
▁tact	-6259
▁tamp	-6260
▁thai	-6261
▁thra	-6262
▁vein	-6263
▁verb	-6264
aaaaaa	-6265
coming	-6266
consin	-6267
couver	-6268
formed	-6269
ialism	-6270
idency	-6271
liness	-6272
ocracy	-6273
rendum	-6274
rified	-6275
▁aaaaa	-6276
▁alarm	-6277
▁arrog	-6278
▁bliss	-6279
▁boner	-6280
▁boost	-6281
▁brush	-6282
▁chant	-6283
▁comed	-6284
▁coord	-6285
▁dwell	-6286
▁fianc	-6287
▁furry	-6288
▁gimme	-6289
▁harry	-6290
▁inapp	-6291
▁incap	-6292
▁innov	-6293
▁joint	-6294
▁korea	-6295
▁lover	-6296
▁meeee	-6297
▁miami	-6298
▁mouse	-6299
▁natty	-6300
▁negot	-6301
▁nerfe	-6302
▁overd	-6303
▁overt	-6304
▁phase	-6305
▁prank	-6306
▁radio	-6307
▁repro	-6308
▁salad	-6309
▁shine	-6310
▁shith	-6311
▁shred	-6312
▁sized	-6313
▁slang	-6314
▁smack	-6315
▁strip	-6316
▁tower	-6317
▁ultra	-6318
▁verse	-6319
scriber	-6320
vention	-6321
▁admire	-6322
▁assert	-6323
▁baffle	-6324
▁banana	-6325
▁behave	-6326
▁brazil	-6327
▁celtic	-6328
▁centre	-6329
▁denial	-6330
▁devast	-6331
▁emblem	-6332
▁esteem	-6333
▁extend	-6334
▁extrem	-6335
▁falcon	-6336
▁filter	-6337
▁fortun	-6338
▁france	-6339
▁greasy	-6340
▁guitar	-6341
▁hammer	-6342
▁hypoth	-6343
▁insist	-6344
▁intens	-6345
▁length	-6346
▁locker	-6347
▁misery	-6348
▁museum	-6349
▁needle	-6350
▁nephew	-6351
▁normie	-6352
▁nugget	-6353
▁outlet	-6354
▁peanut	-6355
▁perman	-6356
▁priest	-6357
▁psycho	-6358
▁reaper	-6359
▁reeeee	-6360
▁region	-6361
▁replay	-6362
▁resent	-6363
▁safely	-6364
▁shovel	-6365
▁singer	-6366
▁sloppy	-6367
▁sneeze	-6368
▁soviet	-6369
▁spamme	-6370
▁states	-6371
▁stroke	-6372
▁tackle	-6373
▁tempor	-6374
▁thrill	-6375
▁unlock	-6376
▁upside	-6377
▁vulner	-6378
▁worthy	-6379
aneously	-6380
ribution	-6381
▁alabama	-6382
▁applaud	-6383
▁arsenal	-6384
▁astound	-6385
▁atleast	-6386
▁biology	-6387
▁chamber	-6388
▁charger	-6389
▁chelsea	-6390
▁consens	-6391
▁declare	-6392
▁default	-6393
▁exhaust	-6394
▁expense	-6395
▁fighter	-6396
▁flavour	-6397
▁freakin	-6398
▁hideous	-6399
▁hipster	-6400
▁literal	-6401
▁morally	-6402
▁oppress	-6403
▁orlando	-6404
▁pattern	-6405
▁phoenix	-6406
▁playing	-6407
▁premier	-6408
▁sidebar	-6409
▁slipper	-6410
▁sticker	-6411
▁swallow	-6412
▁talking	-6413
▁treason	-6414
▁variety	-6415
▁villain	-6416
▁warrior	-6417
itutional	-6418
▁chemical	-6419
▁detailed	-6420
▁dialogue	-6421
▁dominate	-6422
▁drinking	-6423
▁gillette	-6424
▁homework	-6425
▁intimacy	-6426
▁medicine	-6427
▁misogyny	-6428
▁ordinary	-6429
▁overcome	-6430
▁patience	-6431
▁perceive	-6432
▁pleasant	-6433
▁secretly	-6434
▁superior	-6435
▁survival	-6436
▁sympathy	-6437
▁terminal	-6438
▁terribly	-6439
▁thorough	-6440
▁adventure	-6441
▁blatantly	-6442
▁celebrity	-6443
▁confusing	-6444
▁disappear	-6445
▁dishonest	-6446
▁furniture	-6447
▁implement	-6448
▁intellect	-6449
▁mentality	-6450
▁photoshop	-6451
▁sociopath	-6452
▁spiritual	-6453
▁tolerance	-6454
▁vancouver	-6455
▁vegetable	-6456
▁wisconsin	-6457
▁attraction	-6458
▁australian	-6459
▁electrical	-6460
▁frequently	-6461
▁highschool	-6462
▁manipulate	-6463
▁meaningful	-6464
▁misleading	-6465
▁opposition	-6466
▁oppression	-6467
▁possession	-6468
▁preference	-6469
▁referendum	-6470
▁reflection	-6471
▁subscriber	-6472
▁technology	-6473
▁throughout	-6474
▁complicated	-6475
▁consistency	-6476
▁essentially	-6477
▁frustration	-6478
▁intentional	-6479
▁meaningless	-6480
▁participate	-6481
▁republicans	-6482
▁deliberately	-6483
▁motherfucker	-6484
▁overwhelming	-6485
▁surprisingly	-6486
▁unemployment	-6487
▁controversial	-6488
▁inappropriate	-6489
▁misunderstood	-6490
▁accomplishment	-6491
▁administration	-6492
▁representation	-6493
cl	-6494
cs	-6495
fg	-6496
nc	-6497
pn	-6498
xx	-6499
za	-6500
aby	-6501
aga	-6502
ala	-6503
ano	-6504
arl	-6505
awd	-6506
cle	-6507
ddy	-6508
ede	-6509
eto	-6510
fun	-6511
ged	-6512
gie	-6513
got	-6514
ika	-6515
ilt	-6516
imb	-6517
ins	-6518
irk	-6519
lon	-6520
lor	-6521
lyn	-6522
mie	-6523
mph	-6524
nie	-6525
nis	-6526
obe	-6527
oma	-6528
pal	-6529
pie	-6530
rer	-6531
tin	-6532
ulf	-6533
xxe	-6534
▁aa	-6535
▁au	-6536
▁bm	-6537
▁bp	-6538
▁cd	-6539
▁cf	-6540
▁dw	-6541
▁ew	-6542
▁ft	-6543
▁gh	-6544
▁hs	-6545
▁kr	-6546
▁od	-6547
▁og	-6548
▁sd	-6549
▁ts	-6550
▁tu	-6551
agon	-6552
atar	-6553
aunt	-6554
bear	-6555
buck	-6556
cest	-6557
cher	-6558
dnes	-6559
door	-6560
ffff	-6561
geon	-6562
ggar	-6563
iiii	-6564
isor	-6565
lock	-6566
mbol	-6567
osal	-6568
pell	-6569
pple	-6570
show	-6571
suit	-6572
uana	-6573
udge	-6574
ugal	-6575
uild	-6576
user	-6577
wide	-6578
ylum	-6579
▁aoc	-6580
▁bbc	-6581
▁bch	-6582
▁bid	-6583
▁chi	-6584
▁cho	-6585
▁cis	-6586
▁coc	-6587
▁dia	-6588
▁dna	-6589
▁dor	-6590
▁duh	-6591
▁dxm	-6592
▁elo	-6593
▁err	-6594
▁fer	-6595
▁fri	-6596
▁gur	-6597
▁hal	-6598
▁hog	-6599
▁hoo	-6600
▁hou	-6601
▁lim	-6602
▁mit	-6603
▁mrs	-6604
▁neo	-6605
▁pir	-6606
▁plz	-6607
▁rew	-6608
▁rib	-6609
▁sob	-6610
▁soc	-6611
▁tap	-6612
▁tlj	-6613
▁tsa	-6614
▁vig	-6615
▁vit	-6616
▁wiz	-6617
▁wut	-6618
aging	-6619
amine	-6620
amous	-6621
arten	-6622
asure	-6623
bling	-6624
block	-6625
cient	-6626
gging	-6627
glect	-6628
hable	-6629
hetor	-6630
hibit	-6631
ipple	-6632
istan	-6633
istle	-6634
layer	-6635
maker	-6636
onsor	-6637
ought	-6638
shell	-6639
ssion	-6640
track	-6641
uably	-6642
udder	-6643
uffle	-6644
usher	-6645
usual	-6646
utive	-6647
▁asse	-6648
▁beam	-6649
▁beef	-6650
▁bend	-6651
▁bind	-6652
▁brah	-6653
▁came	-6654
▁cath	-6655
▁cert	-6656
▁clin	-6657
▁darn	-6658
▁deer	-6659
▁delt	-6660
▁fest	-6661
▁fist	-6662
▁flam	-6663
▁frog	-6664
▁gasp	-6665
▁heel	-6666
▁july	-6667
▁komb	-6668
▁kudo	-6669
▁lore	-6670
▁lump	-6671
▁merc	-6672
▁midn	-6673
▁mole	-6674
▁ncaa	-6675
▁noob	-6676
▁ohhh	-6677
▁oven	-6678
▁pace	-6679
▁papa	-6680
▁phen	-6681
▁plag	-6682
▁pole	-6683
▁prot	-6684
▁rein	-6685
▁roof	-6686
▁rudy	-6687
▁rust	-6688
▁seed	-6689
▁sept	-6690
▁skew	-6691
▁skit	-6692
▁stir	-6693
▁thir	-6694
▁tory	-6695
▁triv	-6696
▁turk	-6697
▁urge	-6698
▁vall	-6699
▁whom	-6700
▁wink	-6701
▁wooo	-6702
aughty	-6703
etical	-6704
gation	-6705
iliate	-6706
monton	-6707
ulsive	-6708
weight	-6709
▁adore	-6710
▁arbit	-6711
▁brawl	-6712
▁brook	-6713
▁climb	-6714
▁colon	-6715
▁couch	-6716
▁ditch	-6717
▁essay	-6718
▁flood	-6719
▁grasp	-6720
▁grass	-6721
▁infin	-6722
▁inner	-6723
▁irish	-6724
▁italy	-6725
▁jelly	-6726
▁jewel	-6727
▁lefty	-6728
▁lemon	-6729
▁louis	-6730
▁maker	-6731
▁manuf	-6732
▁munch	-6733
▁ooooo	-6734
▁overl	-6735
▁pause	-6736
▁plain	-6737
▁purge	-6738
▁ranch	-6739
▁rapid	-6740
▁recre	-6741
▁recyc	-6742
▁rehab	-6743
▁renew	-6744
▁restr	-6745
▁rhyme	-6746
▁seven	-6747
▁sheet	-6748
▁shell	-6749
▁skull	-6750
▁slack	-6751
▁sober	-6752
▁spicy	-6753
▁stain	-6754
▁stamp	-6755
▁stoke	-6756
▁stomp	-6757
▁stuck	-6758
▁sword	-6759
▁tobac	-6760
▁troop	-6761
▁tweak	-6762
▁unint	-6763
▁waist	-6764
▁youth	-6765
dnesday	-6766
enerate	-6767
gnitive	-6768
itivity	-6769
natural	-6770
versary	-6771
versity	-6772
▁africa	-6773
▁assign	-6774
▁assure	-6775
▁asylum	-6776
▁avatar	-6777
▁batter	-6778
▁biased	-6779
▁borrow	-6780
▁bronco	-6781
▁bucket	-6782
▁dammit	-6783
▁denver	-6784
▁disson	-6785
▁entity	-6786
▁expire	-6787
▁explos	-6788
▁facial	-6789
▁farmer	-6790
▁fourth	-6791
▁gather	-6792
▁gladly	-6793
▁goalie	-6794
▁inspir	-6795
▁kicker	-6796
▁kindly	-6797
▁korean	-6798
▁laptop	-6799
▁minded	-6800
▁morbid	-6801
▁noodle	-6802
▁orgasm	-6803
▁orient	-6804
▁polite	-6805
▁potter	-6806
▁prince	-6807
▁racial	-6808
▁ramble	-6809
▁redeem	-6810
▁rhetor	-6811
▁rubber	-6812
▁sanity	-6813
▁saving	-6814
▁senate	-6815
▁subway	-6816
▁sucker	-6817
▁sunset	-6818
▁suprem	-6819
▁symbol	-6820
▁temple	-6821
▁tenant	-6822
▁thrive	-6823
▁tickle	-6824
▁timing	-6825
▁toothp	-6826
▁twenty	-6827
▁unheal	-6828
▁unsure	-6829
▁viewer	-6830
▁weekly	-6831
▁wisdom	-6832
▁wizard	-6833
asonable	-6834
▁anarchy	-6835
▁ancient	-6836
▁android	-6837
▁appoint	-6838
▁athlete	-6839
▁blessed	-6840
▁cheater	-6841
▁chronic	-6842
▁compass	-6843
▁conform	-6844
▁costume	-6845
▁council	-6846
▁courage	-6847
▁defence	-6848
▁disable	-6849
▁distant	-6850
▁driving	-6851
▁dynamic	-6852
▁enlight	-6853
▁exagger	-6854
▁execute	-6855
▁fishing	-6856
▁furious	-6857
▁gesture	-6858
▁grocery	-6859
▁harmful	-6860
▁highway	-6861
▁hopeful	-6862
▁hormone	-6863
▁horrend	-6864
▁houston	-6865
▁kingdom	-6866
▁lottery	-6867
▁matchup	-6868
▁naughty	-6869
▁neglect	-6870
▁newborn	-6871
▁offence	-6872
▁parking	-6873
▁portion	-6874
▁precise	-6875
▁premium	-6876
▁propose	-6877
▁rainbow	-6878
▁relapse	-6879
▁revolve	-6880
▁romance	-6881
▁rounder	-6882
▁running	-6883
▁senator	-6884
▁session	-6885
▁someday	-6886
▁specify	-6887
▁sponsor	-6888
▁thunder	-6889
▁traumat	-6890
▁trinity	-6891
▁unusual	-6892
▁upvoted	-6893
▁vanilla	-6894
formation	-6895
omination	-6896
▁arguably	-6897
▁arrogant	-6898
▁basement	-6899
▁cannibal	-6900
▁category	-6901
▁coaching	-6902
▁colorado	-6903
▁designer	-6904
▁download	-6905
▁edmonton	-6906
▁entitled	-6907
▁follower	-6908
▁funniest	-6909
▁grateful	-6910
▁internal	-6911
▁intrigue	-6912
▁japanese	-6913
▁legalize	-6914
▁marginal	-6915
▁mechanic	-6916
▁michigan	-6917
▁midnight	-6918
▁momentum	-6919
▁restrict	-6920
▁rewatche	-6921
▁riddance	-6922
▁roommate	-6923
▁sidewalk	-6924
▁slippery	-6925
▁snapchat	-6926
▁starbuck	-6927
▁strongly	-6928
▁teleport	-6929
▁treasure	-6930
▁underage	-6931
▁agreement	-6932
▁alcoholic	-6933
▁automatic	-6934
▁breakfast	-6935
▁detective	-6936
▁developer	-6937
▁dominance	-6938
▁douchebag	-6939
▁expansion	-6940
▁gentleman	-6941
▁household	-6942
▁imaginary	-6943
▁incapable	-6944
▁infection	-6945
▁interrupt	-6946
▁pedophile	-6947
▁reasoning	-6948
▁selection	-6949
▁suffering	-6950
▁terrified	-6951
▁tradition	-6952
▁universal	-6953
▁virginity	-6954
▁volunteer	-6955
▁wednesday	-6956
▁willfully	-6957
▁biological	-6958
▁commentary	-6959
▁comprehend	-6960
▁conference	-6961
▁disturbing	-6962
▁excitement	-6963
▁foundation	-6964
▁importance	-6965
▁masturbate	-6966
▁passionate	-6967
▁philosophy	-6968
▁remarkable	-6969
▁thoughtful	-6970
▁ultimately	-6971
▁validation	-6972
▁defensively	-6973
▁demonstrate	-6974
▁devastating	-6975
▁entitlement	-6976
▁grandfather	-6977
▁implication	-6978
▁institution	-6979
▁investigate	-6980
▁masterpiece	-6981
▁objectively	-6982
▁observation	-6983
▁potentially	-6984
▁practically	-6985
▁predictable	-6986
▁restriction	-6987
▁underground	-6988
▁dictatorship	-6989
▁satisfaction	-6990
▁unreasonable	-6991
▁automatically	-6992
▁comprehension	-6993
▁consideration	-6994
▁disrespectful	-6995
▁entertainment	-6996
▁intentionally	-6997
▁justification	-6998
hhhhhhhhhhhhhhhh	-6999
hi	-7000
ju	-7001
ko	-7002
lv	-7003
abe	-7004
aph	-7005
ari	-7006
aul	-7007
avy	-7008
bie	-7009
bur	-7010
ctr	-7011
dog	-7012
emn	-7013
ete	-7014
ham	-7015
job	-7016
nnn	-7017
oly	-7018
rue	-7019
sex	-7020
sle	-7021
ted	-7022
tfo	-7023
uce	-7024
uri	-7025
utt	-7026
xis	-7027
▁ct	-7028
▁eb	-7029
▁ee	-7030
▁ez	-7031
▁fm	-7032
▁fw	-7033
▁gp	-7034
▁hb	-7035
▁ko	-7036
▁ls	-7037
▁lv	-7038
▁mb	-7039
▁ou	-7040
▁oz	-7041
▁tp	-7042
▁tx	-7043
▁yt	-7044
ader	-7045
aine	-7046
bone	-7047
cott	-7048
ddle	-7049
eesh	-7050
ench	-7051
ethe	-7052
fold	-7053
girl	-7054
hehe	-7055
ifie	-7056
isan	-7057
ised	-7058
ista	-7059
itan	-7060
izer	-7061
jerk	-7062
lass	-7063
llll	-7064
maid	-7065
mark	-7066
mmmm	-7067
noon	-7068
ober	-7069
omen	-7070
open	-7071
opia	-7072
pass	-7073
quer	-7074
real	-7075
rete	-7076
ruit	-7077
sage	-7078
sive	-7079
sman	-7080
ssim	-7081
thod	-7082
uber	-7083
ulge	-7084
wall	-7085
west	-7086
yote	-7087
▁apt	-7088
▁atl	-7089
▁aug	-7090
▁bla	-7091
▁bog	-7092
▁cos	-7093
▁cyn	-7094
▁dak	-7095
▁das	-7096
▁dot	-7097
▁eve	-7098
▁gum	-7099
▁hes	-7100
▁hut	-7101
▁ikr	-7102
▁kot	-7103
▁lux	-7104
▁mlk	-7105
▁mtv	-7106
▁muh	-7107
▁mus	-7108
▁nit	-7109
▁ole	-7110
▁osc	-7111
▁paw	-7112
▁phd	-7113
▁por	-7114
▁qbs	-7115
▁rim	-7116
▁rul	-7117
▁tad	-7118
▁tow	-7119
▁tue	-7120
▁wal	-7121
▁wil	-7122
▁won	-7123
▁zoo	-7124
aaaay	-7125
accur	-7126
acist	-7127
acity	-7128
aurus	-7129
beard	-7130
child	-7131
ergic	-7132
grace	-7133
hetic	-7134
icing	-7135
ilize	-7136
ingen	-7137
irrel	-7138
leans	-7139
lfare	-7140
mouth	-7141
ocado	-7142
oming	-7143
opoly	-7144
pical	-7145
pping	-7146
regon	-7147
shine	-7148
slave	-7149
stant	-7150
strip	-7151
water	-7152
▁ally	-7153
▁bois	-7154
▁boop	-7155
▁brew	-7156
▁bury	-7157
▁calc	-7158
▁claw	-7159
▁cope	-7160
▁cosp	-7161
▁crab	-7162
▁devs	-7163
▁dime	-7164
▁dirt	-7165
▁dive	-7166
▁dome	-7167
▁drum	-7168
▁durr	-7169
▁febr	-7170
▁fold	-7171
▁gawd	-7172
▁gene	-7173
▁goth	-7174
▁grim	-7175
▁grip	-7176
▁gtfo	-7177
▁gull	-7178
▁hers	-7179
▁homo	-7180
▁hurr	-7181
▁isis	-7182
▁isle	-7183
▁itch	-7184
▁jazz	-7185
▁keen	-7186
▁lego	-7187
▁libt	-7188
▁loot	-7189
▁lost	-7190
▁lung	-7191
▁marx	-7192
▁matt	-7193
▁meow	-7194
▁mini	-7195
▁mont	-7196
▁ours	-7197
▁outs	-7198
▁peta	-7199
▁pour	-7200
▁ptsd	-7201
▁puff	-7202
▁punk	-7203
▁rile	-7204
▁sams	-7205
▁sane	-7206
▁slot	-7207
▁soap	-7208
▁sole	-7209
▁sper	-7210
▁stub	-7211
▁subs	-7212
▁sust	-7213
▁sync	-7214
▁tide	-7215
▁tumb	-7216
▁unac	-7217
▁unhe	-7218
▁vend	-7219
▁weep	-7220
▁zeal	-7221
allica	-7222
arette	-7223
entive	-7224
ficial	-7225
ijuana	-7226
ission	-7227
rofess	-7228
shield	-7229
tember	-7230
vation	-7231
▁alber	-7232
▁alert	-7233
▁ancap	-7234
▁antic	-7235
▁aquar	-7236
▁armed	-7237
▁asset	-7238
▁batch	-7239
▁brace	-7240
▁bravo	-7241
▁bribe	-7242
▁butth	-7243
▁capit	-7244
▁chili	-7245
▁demog	-7246
▁depre	-7247
▁diarr	-7248
▁digit	-7249
▁disad	-7250
▁dummy	-7251
▁facet	-7252
▁fence	-7253
▁fetus	-7254
▁fluff	-7255
▁frick	-7256
▁greek	-7257
▁greet	-7258
▁holly	-7259
▁incon	-7260
▁inval	-7261
▁leash	-7262
▁lower	-7263
▁loyal	-7264
▁melee	-7265
▁merit	-7266
▁metro	-7267
▁niece	-7268
▁obese	-7269
▁oblig	-7270
▁paris	-7271
▁paste	-7272
▁peach	-7273
▁poker	-7274
▁polar	-7275
▁popul	-7276
▁promo	-7277
▁realm	-7278
▁rider	-7279
▁roman	-7280
▁satan	-7281
▁scope	-7282
▁scott	-7283
▁setup	-7284
▁skate	-7285
▁skept	-7286
▁sniff	-7287
▁snort	-7288
▁sonic	-7289
▁spare	-7290
▁spice	-7291
▁spite	-7292
▁stair	-7293
▁steer	-7294
▁sushi	-7295
▁trait	-7296
▁usage	-7297
▁vegas	-7298
inguish	-7299
ructure	-7300
▁armour	-7301
▁aswell	-7302
▁atlant	-7303
▁bachel	-7304
▁barber	-7305
▁boomer	-7306
▁bummer	-7307
▁carbon	-7308
▁coffin	-7309
▁columb	-7310
▁dakota	-7311
▁debunk	-7312
▁donald	-7313
▁dumber	-7314
▁enable	-7315
▁excess	-7316
▁exclus	-7317
▁fabric	-7318
▁fiancé	-7319
▁formal	-7320
▁fridge	-7321
▁garlic	-7322
▁glitch	-7323
▁goblin	-7324
▁grader	-7325
▁iconic	-7326
▁kidnap	-7327
▁ladder	-7328
▁latter	-7329
▁mainly	-7330
▁manila	-7331
▁mascot	-7332
▁merely	-7333
▁mortal	-7334
▁nipple	-7335
▁oregon	-7336
▁orthod	-7337
▁parrot	-7338
▁pencil	-7339
▁pessim	-7340
▁pharma	-7341
▁plague	-7342
▁polish	-7343
▁powder	-7344
▁prompt	-7345
▁raider	-7346
▁ranger	-7347
▁rapper	-7348
▁reckon	-7349
▁robber	-7350
▁roller	-7351
▁rumble	-7352
▁scorer	-7353
▁sexism	-7354
▁silent	-7355
▁simult	-7356
▁sorrow	-7357
▁strict	-7358
▁studio	-7359
▁survey	-7360
▁tennis	-7361
▁tomato	-7362
▁uncond	-7363
▁undert	-7364
▁valley	-7365
▁vanish	-7366
▁verify	-7367
aboutism	-7368
ceptable	-7369
etheless	-7370
function	-7371
▁actress	-7372
▁amirite	-7373
▁artific	-7374
▁avocado	-7375
▁barrier	-7376
▁boycott	-7377
▁breakup	-7378
▁cocaine	-7379
▁command	-7380
▁condemn	-7381
▁convict	-7382
▁derange	-7383
▁digital	-7384
▁display	-7385
▁edition	-7386
▁enslave	-7387
▁exclude	-7388
▁fallacy	-7389
▁fanbase	-7390
▁frankly	-7391
▁georgia	-7392
▁hahahah	-7393
▁halfway	-7394
▁hamster	-7395
▁inaccur	-7396
▁indulge	-7397
▁infrast	-7398
▁israeli	-7399
▁largely	-7400
▁liberty	-7401
▁limited	-7402
▁lunatic	-7403
▁magical	-7404
▁musical	-7405
▁october	-7406
▁orleans	-7407
▁pancake	-7408
▁pleased	-7409
▁pokemon	-7410
▁presume	-7411
▁proceed	-7412
▁protein	-7413
▁quietly	-7414
▁rebound	-7415
▁rebuild	-7416
▁resolve	-7417
▁seafood	-7418
▁secular	-7419
▁shatter	-7420
▁shortly	-7421
▁signing	-7422
▁silence	-7423
▁sketchy	-7424
▁snuggle	-7425
▁spotify	-7426
▁squeeze	-7427
▁summary	-7428
▁sweater	-7429
▁sweetie	-7430
▁tobacco	-7431
▁tourney	-7432
▁trading	-7433
▁traitor	-7434
▁tuesday	-7435
▁warrant	-7436
▁welfare	-7437
▁whisper	-7438
▁whistle	-7439
ingenuous	-7440
▁advanced	-7441
▁allergic	-7442
▁alliance	-7443
▁bankrupt	-7444
▁brooklyn	-7445
▁coverage	-7446
▁cultural	-7447
▁darkness	-7448
▁disgrace	-7449
▁distress	-7450
▁endanger	-7451
▁existent	-7452
▁facility	-7453
▁february	-7454
▁festival	-7455
▁initiate	-7456
▁insanely	-7457
▁irritate	-7458
▁jealousy	-7459
▁laziness	-7460
▁magnific	-7461
▁misspell	-7462
▁morality	-7463
▁motivate	-7464
▁nickname	-7465
▁organize	-7466
▁particip	-7467
▁prepared	-7468
▁producer	-7469
▁reporter	-7470
▁shootout	-7471
▁squirrel	-7472
▁strawman	-7473
▁stubborn	-7474
▁subtitle	-7475
▁sweetest	-7476
▁uncommon	-7477
▁addictive	-7478
▁afternoon	-7479
▁alternate	-7480
▁anarchism	-7481
▁apologise	-7482
▁bartender	-7483
▁cigarette	-7484
▁cognitive	-7485
▁commenter	-7486
▁crosspost	-7487
▁dependent	-7488
▁diversity	-7489
▁enjoyable	-7490
▁enlighten	-7491
▁essential	-7492
▁extremist	-7493
▁fashioned	-7494
▁fundament	-7495
▁initially	-7496
▁magically	-7497
▁marijuana	-7498
▁massively	-7499
▁metallica	-7500
▁moderator	-7501
▁neighbour	-7502
▁oblivious	-7503
▁overreact	-7504
▁ownership	-7505
▁parenting	-7506
▁pregnancy	-7507
▁principle	-7508
▁reproduce	-7509
▁september	-7510
▁signature	-7511
▁slaughter	-7512
▁speculate	-7513
▁stressful	-7514
▁terrorism	-7515
▁unhealthy	-7516
▁upsetting	-7517
rofessional	-7518
▁allegation	-7519
▁believable	-7520
▁compassion	-7521
▁consistent	-7522
▁contractor	-7523
▁degenerate	-7524
▁disconnect	-7525
▁dissonance	-7526
▁horrendous	-7527
▁horrifying	-7528
▁hysterical	-7529
▁inherently	-7530
▁insightful	-7531
▁intimidate	-7532
▁investment	-7533
▁leadership	-7534
▁motivation	-7535
▁mysterious	-7536
▁outrageous	-7537
▁overweight	-7538
▁regulation	-7539
▁submission	-7540
▁superpower	-7541
▁toothpaste	-7542
▁vegetarian	-7543
▁windshield	-7544
▁concentrate	-7545
▁distraction	-7546
▁effectively	-7547
▁incompetent	-7548
▁inspiration	-7549
▁manufacture	-7550
▁nonetheless	-7551
▁orientation	-7552
▁playthrough	-7553
▁unrealistic	-7554
▁vaccination	-7555
▁confirmation	-7556
▁constitution	-7557
▁disadvantage	-7558
▁disingenuous	-7559
▁hypothetical	-7560
▁inconsistent	-7561
▁manipulation	-7562
▁notification	-7563
▁psychiatrist	-7564
▁unacceptable	-7565
▁whataboutism	-7566
▁establishment	-7567
▁infrastructure	-7568
▁interpretation	-7569
▁representative	-7570
uuuuuuuuuuuuuuuu	-7571
fo	-7572
hd	-7573
hr	-7574
kn	-7575
lr	-7576
sw	-7577
uk	-7578
ux	-7579
▁ツ	-7580
afe	-7581
aid	-7582
alf	-7583
axy	-7584
ept	-7585
gal	-7586
ggy	-7587
hal	-7588
ibs	-7589
icr	-7590
iso	-7591
iti	-7592
iva	-7593
jud	-7594
led	-7595
log	-7596
lot	-7597
mat	-7598
mme	-7599
nam	-7600
ned	-7601
oga	-7602
oni	-7603
orb	-7604
rav	-7605
ril	-7606
ris	-7607
saw	-7608
som	-7609
ste	-7610
urf	-7611
urt	-7612
▁ay	-7613
▁dv	-7614
▁ea	-7615
▁gn	-7616
▁gy	-7617
▁jk	-7618
▁jv	-7619
▁kp	-7620
▁pk	-7621
▁pn	-7622
▁pw	-7623
▁rh	-7624
▁tt	-7625
▁va	-7626
▁vo	-7627
▁ws	-7628
▁xp	-7629
agne	-7630
ante	-7631
bell	-7632
bish	-7633
burn	-7634
case	-7635
dddd	-7636
each	-7637
empt	-7638
ende	-7639
esus	-7640
fere	-7641
free	-7642
fuck	-7643
fund	-7644
gain	-7645
gedy	-7646
gest	-7647
gggg	-7648
ggie	-7649
ggin	-7650
hent	-7651
iced	-7652
iche	-7653
inth	-7654
iper	-7655
ired	-7656
iser	-7657
lash	-7658
lick	-7659
life	-7660
lymp	-7661
made	-7662
meme	-7663
mson	-7664
ones	-7665
onge	-7666
ored	-7667
pack	-7668
pron	-7669
qual	-7670
roph	-7671
skin	-7672
step	-7673
teen	-7674
unny	-7675
used	-7676
word	-7677
▁aka	-7678
▁ame	-7679
▁amp	-7680
▁ark	-7681
▁arr	-7682
▁asp	-7683
▁aus	-7684
▁aye	-7685
▁cab	-7686
▁cad	-7687
▁cbd	-7688
▁cgi	-7689
▁coo	-7690
▁dea	-7691
▁did	-7692
▁dps	-7693
▁dsj	-7694
▁dye	-7695
▁fog	-7696
▁haw	-7697
▁hiv	-7698
▁hub	-7699
▁hyd	-7700
▁irr	-7701
▁jim	-7702
▁kfc	-7703
▁lag	-7704
▁lam	-7705
▁lau	-7706
▁lob	-7707
▁lud	-7708
▁mmo	-7709
▁naw	-7710
▁nec	-7711
▁ott	-7712
▁ove	-7713
▁pff	-7714
▁pik	-7715
▁pul	-7716
▁rig	-7717
▁roy	-7718
▁sew	-7719
▁sis	-7720
▁spy	-7721
▁ste	-7722
▁sty	-7723
▁tal	-7724
▁tan	-7725
▁tek	-7726
▁tfw	-7727
▁thy	-7728
▁tin	-7729
▁tir	-7730
▁tis	-7731
▁tum	-7732
▁tut	-7733
▁tyr	-7734
▁uhh	-7735
▁vap	-7736
▁vic	-7737
▁vpn	-7738
▁wid	-7739
▁yer	-7740
▁yrs	-7741
▁yum	-7742
alist	-7743
alled	-7744
amond	-7745
apper	-7746
ardon	-7747
asive	-7748
athom	-7749
conut	-7750
dream	-7751
eness	-7752
ereal	-7753
erion	-7754
force	-7755
hawks	-7756
heart	-7757
human	-7758
icked	-7759
icule	-7760
idity	-7761
imple	-7762
inter	-7763
iotic	-7764
irect	-7765
itome	-7766
iving	-7767
izing	-7768
leeve	-7769
letic	-7770
leton	-7771
lette	-7772
lling	-7773
llowe	-7774
olina	-7775
ormed	-7776
rency	-7777
rison	-7778
scend	-7779
shire	-7780
sight	-7781
stone	-7782
ulous	-7783
▁ache	-7784
▁adhd	-7785
▁adul	-7786
▁aest	-7787
▁aged	-7788
▁alph	-7789
▁anni	-7790
▁arab	-7791
▁bare	-7792
▁barn	-7793
▁beet	-7794
▁blah	-7795
▁cane	-7796
▁cape	-7797
▁clam	-7798
▁cord	-7799
▁cryb	-7800
▁dair	-7801
▁dank	-7802
▁dwar	-7803
▁echo	-7804
▁euro	-7805
▁fame	-7806
▁favs	-7807
▁fran	-7808
▁fulf	-7809
▁gray	-7810
▁grit	-7811
▁guid	-7812
▁hawk	-7813
▁hike	-7814
▁hind	-7815
▁hipp	-7816
▁isol	-7817
▁june	-7818
▁juul	-7819
▁knob	-7820
▁kong	-7821
▁lact	-7822
▁limb	-7823
▁lurk	-7824
▁mans	-7825
▁mant	-7826
▁mary	-7827
▁mong	-7828
▁mute	-7829
▁nash	-7830
▁navy	-7831
▁nine	-7832
▁olig	-7833
▁omfg	-7834
▁palp	-7835
▁phew	-7836
▁pope	-7837
▁prec	-7838
▁rake	-7839
▁riot	-7840
▁rose	-7841
▁seme	-7842
▁soil	-7843
▁soph	-7844
▁stew	-7845
▁sung	-7846
▁swap	-7847
▁tant	-7848
▁trae	-7849
▁uned	-7850
▁unle	-7851
▁used	-7852
▁vamp	-7853
▁vase	-7854
▁vaxx	-7855
▁wank	-7856
▁yuck	-7857
atedly	-7858
cedure	-7859
comend	-7860
hentic	-7861
igator	-7862
ilarly	-7863
imited	-7864
ipline	-7865
irable	-7866
iscuit	-7867
lympic	-7868
metery	-7869
ordash	-7870
ormous	-7871
saurus	-7872
ulance	-7873
ulator	-7874
veland	-7875
▁april	-7876
▁arena	-7877
▁badge	-7878
▁bland	-7879
▁blank	-7880
▁blitz	-7881
▁blizz	-7882
▁brink	-7883
▁broke	-7884
▁cater	-7885
▁cease	-7886
▁chaos	-7887
▁cliff	-7888
▁crank	-7889
▁delta	-7890
▁dodgy	-7891
▁doxxe	-7892
▁drone	-7893
▁drool	-7894
▁	-7895
e	-7896
t	-7897
o	-7898
a	-7899
n	-7900
i	-7901
h	-7902
r	-7903
s	-7904
l	-7905
u	-7906
d	-7907
y	-7908
m	-7909
b	-7910
c	-7911
w	-7912
f	-7913
p	-7914
g	-7915
k	-7916
v	-7917
I	-7918
j	-7919
<	-7920
>	-7921
M	-7922
N	-7923
U	-7924
x	-7925
z	-7926
q	-7927
_	-7928
é	-7929
ɪ	-7930
ツ	-7931
ʖ	-7932
ᴏ	-7933
ᴛ	-7934
ノ	-7935
á	-7936
ó	-7937
ˈ	-7938
ᴀ	-7939
ñ	-7940
ò	-7941
ē	-7942
ə	-7943
ɴ	-7944
δ	-7945
ω	-7946
я	-7947
ᴇ	-7948
ᴡ	-7949
ß	-7950
æ	-7951
ç	-7952
è	-7953
í	-7954
ï	-7955
ø	-7956
ú	-7957
ā	-7958
ī	-7959
ı	-7960
ǝ	-7961
ɐ	-7962
ɡ	-7963
ɢ	-7964
ɹ	-7965
ʌ	-7966
ʍ	-7967
ʜ	-7968
א	-7969
ג	-7970
ו	-7971
י	-7972
ל	-7973
ן	-7974
ᴅ	-7975
ᴍ	-7976
ᴜ	-7977
中	-7978
人	-7979
国	-7980
情	-7981
查	-7982
清	-7983
玛	-7984
雅	-7985
개	-7986
니	-7987
면	-7988
무	-7989
발	-7990
병	-7991
억	-7992
인	-7993
청	-7994
카	-7995
허	-7996
